/**
  ******************************************************************************
  * @file    network_data_params.c
  * @author  AST Embedded Analytics Research Platform
  * @date    2026-04-10T14:38:49+0800
  * @brief   AI Tool Automatic Code Generator for Embedded NN computing
  ******************************************************************************
  * Copyright (c) 2026 STMicroelectronics.
  * All rights reserved.
  *
  * This software is licensed under terms that can be found in the LICENSE file
  * in the root directory of this software component.
  * If no LICENSE file comes with this software, it is provided AS-IS.
  ******************************************************************************
  */

#include "network_data_params.h"


/**  Activations Section  ****************************************************/
ai_handle g_network_activations_table[1 + 2] = {
  AI_HANDLE_PTR(AI_MAGIC_MARKER),
  AI_HANDLE_PTR(NULL),
  AI_HANDLE_PTR(AI_MAGIC_MARKER),
};




/**  Weights Section  ********************************************************/
AI_ALIGNED(32)
const ai_u64 s_network_weights_array_u64[11520] = {
  0xf5e77fbf3d811d58U, 0x1f70816b813a38deU, 0x8154bf19a3bebf7fU, 0x2fdfab7fe0a3368dU,
  0xe7cb4956817fe1caU, 0x7f35f881bdbee31dU, 0xe3c5b3c7958111aaU, 0x7fd7d51f537f6633U,
  0x107f4b55943181baU, 0xf7fcd27baba0962U, 0xffffdb9a00001a8aU, 0x3414fffff322U,
  0x12e8fffff5c4U, 0x1f1fffffe8daU, 0x140fffffa78U, 0xffffcd280000490eU,
  0xb6ffffff6f4U, 0xffffe6baffffc849U, 0x3a3102c611ee3c22U, 0x15281749f4810509U,
  0xf21a46f0bf4eedfcU, 0x3b493619e5c62fd2U, 0x201ae4ced226211bU, 0xee282e28f1bbfb21U,
  0xf1ee3a08c63e4501U, 0x171523f824b311eaU, 0xaf222d015ee26f8U, 0x4036032af9a343e4U,
  0xe439dffe8b1c11f2U, 0x3717e7a01d07152eU, 0x9a03bbed95261ce9U, 0xff161e112ce3d530U,
  0xf0f1812086ee17e7U, 0x1a1ee0d5369827e4U, 0x8bea03f21bc53cdcU, 0xe50ed8d833cc1f3dU,
  0xccd5c1f4c5bd5a4cU, 0x2dfcb5e1e501fb0bU, 0xf0d208ffda0a5a3aU, 0x2709f6450fb70fe4U,
  0xe31c09161a3b1801U, 0x35e1f21a0bf2c738U, 0x4c22f7e6813132ddU, 0x931dbeaf08e5937U,
  0xc7c838dafa1835f0U, 0xda2bddef4cd6c9b8U, 0xfb0c2c05ade2c1eeU, 0xdbea453739bdf83eU,
  0xe51a3f11b2fa0cf9U, 0x15f8ff2c218208e4U, 0xf44409db0cea3e23U, 0xc06f542da813bfaU,
  0x63853dfce33ff01U, 0xdf93219d4a712d0U, 0x232fbcd1dee2638U, 0x26392f1b2b9a242dU,
  0x310f5af9c52f1fd5U, 0x2a2f0b26fe9aebfbU, 0x53f2c0c5a2ee3c9U, 0xddc639e6460ed203U,
  0xdb0abd38262925e2U, 0x3b09be142c12f2ffU, 0xeceeda61f5e0d9U, 0xf6dfc6a5f93008ccU,
  0x11c2e0cd76dcb408U, 0x15faba0ab87f0cd0U, 0x2ef91804241eb7deU, 0x38e12eb69c02cbd0U,
  0xca3edcc8fdede0d4U, 0xfa4246a541e3d2efU, 0x8756f80ec542fedaU, 0xdb28448157b6c628U,
  0x9a29e80822c640b4U, 0xd23843d065063623U, 0xb603cce2c3abde30U, 0x20e9d4f506c42905U,
  0x8c4995c8b1183c44U, 0x376be327f01dee4aU, 0xce1bd0c1fbf0e41dU, 0x1c29c11c400df3c3U,
  0x37ba0fd91ce9f1ffU, 0x736d8d114280f02U, 0xf2509f127e6c410U, 0x1748c4e6bf710f35U,
  0xe729ece71bc1cff8U, 0xc10ff8f9dd08be15U, 0xda1fd40b59fada17U, 0x14f606f3bd7fe8e7U,
  0xe7fa5ae5444614efU, 0xcfdbdb44d4810ad5U, 0x5320531717f62216U, 0xe224a46078741eaU,
  0x521e7305d853160fU, 0x25eade5edeacd52cU, 0x13244e1f14e8333cU, 0xf231fbf6c0d11712U,
  0xfc2f3a230e410bc9U, 0x222d05f21fc4fecaU, 0x3aabdb1a2fd01b1dU, 0xd4ee44bfd915cd12U,
  0xe5fa252ce4b3ea3fU, 0xfcbd0a1d8014a41U, 0xeed5e630e1f7caf1U, 0xfbdc16d8d0431bd9U,
  0x3593c9c83f81ec21U, 0x1d3111a5eb1e4dc0U, 0xff92ffe245f7c220U, 0xdb190ee102c30d23U,
  0x4406d34ee5aeeebU, 0x3afe0542fca21e24U, 0x5f17e430d4042923U, 0xd212701c0814204U,
  0x34444410063ff83bU, 0xd0e80f45ffc0051eU, 0x5bc8250515382d29U, 0x4bcc212a1bd407e3U,
  0x112a01233746133fU, 0x8e1ce2b0abde71dU, 0xb4861652e82e0714U, 0x81afef024ad3ea99U,
  0xd8ce2cc26556929eU, 0xc98bb4a521f30ad1U, 0x3b8138d450b5aa4aU, 0x3dd7960f58bd1c6dU,
  0xb1bf926671881c55U, 0x9220519a30cbb593U, 0xf9be26fab1e8f2f0U, 0x92a90d0abe1d822fU,
  0x64d1234b67280f04U, 0xfcea31c54eac43a4U, 0x1381393e4030d642U, 0x92ecb6ccc90e1b57U,
  0xd9becce556a6f92dU, 0xe2e819334aae12f5U, 0xbbed351749eca3f1U, 0xdbb04ca7c03ecfaeU,
  0xd3c5eb0456251121U, 0xb1d3f001dcb543fcU, 0xe0774ccb0be3f64fU, 0x2820ca6be8180a52U,
  0xfb67ccabdd205b26U, 0x7f30c0dfc232dcb0U, 0x3cd90fe0033dff2fU, 0x5845380b513ed1a9U,
  0x5d37374accd806f8U, 0xd2300a55519c42e4U, 0xf9556f0002f51bccU, 0xd351af3600d8531fU,
  0xdb42f84ea02a370bU, 0x66d2adc12960de4U, 0xfc4bf717cca42fb2U, 0x367f381466de2113U,
  0x89dcb718e3fed9adU, 0xc806b9e904a4f21aU, 0x89c4e407049e0b1dU, 0x406331b23a370739U,
  0xcd12c91027e50cb6U, 0x5b2e2098581ac3faU, 0x48d260001b161c40U, 0x53ec55ec057fc027U,
  0x2bad25eb2e2c3254U, 0xd3dac5e0d55fcce3U, 0x3300eb0916fb03faU, 0x1d1752f48863a8c4U,
  0xd735533815fb38cdU, 0xffb94edcb43fd10dU, 0x54c2a25e7cfa8d8U, 0x5ebd22e32b55b221U,
  0xbd2dd6cdd656f5cbU, 0x543a392bfef5e4dbU, 0xe03e39d1ed64f8d5U, 0xd34ecfd2e0957f2U,
  0xe033f43d81335c03U, 0x20d2736050040dfU, 0xf311bf45a4011544U, 0x46fdf0153001d9c1U,
  0x17f7e317bb3758e0U, 0x960164247004312U, 0xbe0dc3d14e6e7c2U, 0x1e17c6c4b37fb231U,
  0x2fdfb3042916c819U, 0x1bc62b0aec0af407U, 0x814eeef33f1af1eU, 0x13c306d62141e7f4U,
  0x2926e72f1024d62aU, 0x3ab63fd2335fc13cU, 0xc13cb6f2e6b1ccf5U, 0xb2f38243f62ec04U,
  0x36e04acfe723a8e4U, 0x2419f7deae9ab25dU, 0x3bc55520fec8424eU, 0xb3f5c7c438a57ee0U,
  0x6a8d2b0873d3f95cU, 0xfc814ef0d1f046bbU, 0x25b5195bb83f8b3eU, 0x9046697bf3e640ecU,
  0x71c33a46b8d149e8U, 0x8b8350c7252663c4U, 0x31dc2dc872fcfc3eU, 0xf2ed27b0947fced8U,
  0x2119dae0171e2f1aU, 0xdbaa28a1d156e707U, 0x1c3ec910e6ba04b9U, 0x2a1d3fc42f0bdc49U,
  0x1f1632eb11dbf9f9U, 0x23ec4c22f762be09U, 0xd6e1dd4d47aee81cU, 0x35191ce6e4e2131cU,
  0xc90820c6c818fc07U, 0xe24fb4fc53f9ce37U, 0x3705fcc0f84418d0U, 0x56e5d4ea49d7f617U,
  0x44ca0324e5e9c238U, 0x59d7d9eac4aa352aU, 0x232ccf3aaeca5a3cU, 0x5228f23338321419U,
  0x2556dde99b470ec8U, 0xd2def4f128813fd5U, 0x2630dc21630ed724U, 0xe7f6e4f1c730fbf0U,
  0x31192d2e71b709f6U, 0xd026cabc191616e4U, 0xded9052e45fe0deeU, 0xcb37e6a8d57f31e6U,
  0x40f13b1b561ece00U, 0xaddef0f8b34cdef4U, 0xf53417eb631300d1U, 0xcdb943f8c96fddcaU,
  0x2fd5f32c5b032641U, 0x1c31260e04e92c15U, 0xc2cb343923e7e52eU, 0x81f0d006c3f440ecU,
  0x1bce273f10910550U, 0xdad9c2d5d2e2401eU, 0x320b3c2325f8bfdbU, 0xcbfad9f3e467d6d5U,
  0x1ad31be206ad1ce8U, 0x169238e5d1eee6d2U, 0x3ccaeba3873343feU, 0x514e5a2205ac3f26U,
  0xa96eca37b8635479U, 0x7728a6ebd08fce2cU, 0x3a016e0c02c669fdU, 0xba42b73963d74843U,
  0x24e1309bed76dad7U, 0x1333f2ff05a33e62U, 0xeefc7fbbd5f453fbU, 0x6d24fdcf2bafe536U,
  0xe3fce58d24042cU, 0x22e22df0412a3ac0U, 0x9207b6db21f7cf1fU, 0x1ffca2549b7eb56U,
  0x81b39c05e2e4e340U, 0xfd40aad7160c050dU, 0xb5cbffd027a6eae8U, 0xcd53a30cf65c12faU,
  0xae02c0edcb2abbe8U, 0x2b651edff520b5eeU, 0x80573027bfad7dfU, 0xd6cff3badff24914U,
  0x48263be71e0fae29U, 0xbc082c41cb03b7fcU, 0x3e0c51530b2cc22aU, 0xb3640271f6d4b57U,
  0xbf6cb234a728d4adU, 0xe2d023f80a07cbebU, 0xeb0bebac2725aa17U, 0x7f3506f63513ec2bU,
  0x52b9542b4fe1dad4U, 0x1c97ec9c2a4cc2c8U, 0x1a04d8ca1102c51cU, 0xd4a41ea9254ac4c1U,
  0x14dbd02146291ac0U, 0x15b627a3fc304537U, 0x261adfc113d7bcc6U, 0x23f4f3b9fefce8d4U,
  0x150b27e4d8fdba02U, 0x20be2781f8daf0f2U, 0xf2faf4c9ebd2a71fU, 0xeb96b6b3b6e62a5fU,
  0xdec4a55d229ed84cU, 0xd6910b942155c3fcU, 0xe8530c23ff0caaa2U, 0x25ccd9f9d911f72cU,
  0xcfa6a1a90f97201eU, 0xd31f1f9e07dc17f9U, 0xfaee2beb7f8efd4bU, 0xf93332e05131fc3bU,
  0x14cac727ee3e45bdU, 0xe6c9ee440253d5c4U, 0xe7ea1d01a0d1e537U, 0xd1db37e4df061d10U,
  0x1bd8f40181d1d2f3U, 0x401930373ae32732U, 0xc3f7d3f29ed8041fU, 0x12c6363232ac36e8U,
  0xfb47df35ca0926c4U, 0x41eeba364cdc1fc4U, 0xe7650cecfcc848ecU, 0xcdf155023eda2c16U,
  0xe336b4d4911f43e9U, 0xf15a13f81a0dc60bU, 0xaf2d07238e1a3b59U, 0x6d7492b62eb313dU,
  0x14101cafd9e72009U, 0xf06cb68e08d7c2d0U, 0x97d20b23bcee14dfU, 0xc77fa996d8ec6329U,
  0x39f248c0ae554219U, 0x28e716280081de38U, 0xfb391845e026f647U, 0x15502033f2c2e643U,
  0x2e53f133db17044fU, 0xe2011852f29be3c9U, 0x61fc65f91ce41d00U, 0x1e1cf0333ca62739U,
  0x2e62043d1f604919U, 0xee283fdfd3c2ef06U, 0xd12ae9ed93af38e8U, 0xf1520bb259a3430dU,
  0xdaf1e1deda16dcc4U, 0x2070ea054b43cfeU, 0x9dd1d6c90abd0feeU, 0xd54db79beccbd009U,
  0xc7d0810cddc8f4daU, 0x2e47fb1df9101df3U, 0xdf34c935a0d5fbf4U, 0xd20403f22cf12a09U,
  0x344a19444f680f06U, 0x32e1100e001838baU, 0xc437f24c11b34edU, 0xe10d3d53249bc617U,
  0x574e5f041e06e2ffU, 0x36f869029f1914U, 0xf130fe27d97d26d4U, 0x5ec815461bf5fa14U,
  0x662408d72461fc09U, 0xe2f6ecf80ff0ff43U, 0xffffe683ffffdc9fU, 0xffffe5f1ffffd21cU,
  0xffffc1acfffffe77U, 0xffffee2e00000665U, 0xffffe4bd00002cabU, 0x533400000117U,
  0xffffb437ffffb6c0U, 0xffffc61600000afcU, 0x59a5ffffeec7U, 0xffffc588fffff12bU,
  0x3f9600000290U, 0xffffe2c1ffffb585U, 0x16e9fffff1d3U, 0xffffe4b8000042bcU,
  0xffffe2e8ffffc14eU, 0xffffd3d9ffffd2a2U, 0xc315f83e16d93eecU, 0xf44407db31f3006eU,
  0x17e60d1b15333a10U, 0xfa1e01130f260b00U, 0x3fee71c00e637e4U, 0xfe44e6070901ff34U,
  0x36fb2b3d0825fa27U, 0xf520d819254f0acdU, 0xfe261722f91f3d10U, 0xeb02fce90519d13cU,
  0x21a300a08190925U, 0xdf2dd718e42ae3e4U, 0x51303fd06e61502U, 0xe3072bf601f0f32aU,
  0x1dd510490d2f1b0aU, 0xd528ebebf914dde2U, 0xe0300623e4e917edU, 0x1cf717e53610db3eU,
  0x42033326ff2e2f25U, 0xf03d05fa154fd2e3U, 0x43d0935e90616cdU, 0xf71217dc0a110529U,
  0x4b100a31082c10f8U, 0xdb0ce3ecf706bac8U, 0xdb2ef3f3e20f340dU, 0x4440f01fe1bf90bU,
  0x26172502f7370f33U, 0xe21e0b03f637f9dfU, 0xd1fb242dd71432eeU, 0xe423f30d3806e737U,
  0x30eff93b01120f2dU, 0xa4fe9f20218f8c2U, 0xbefe24f7db185604U, 0x264026f9080c1540U,
  0xe10050305fd28f5U, 0xf736fd1b06391ac7U, 0xc820f305e1065af9U, 0xf3400cee03eaea41U,
  0x3eec031b223a2b33U, 0xe233de2bf33a1ce4U, 0xcf3c0c2fde1f310cU, 0xed1af3083307e21dU,
  0x16e83628f332ff05U, 0xc825ccf8e72c04ceU, 0xd9141504f5f55befU, 0xaf319f4192ce746U,
  0x43f40d1af12ff6faU, 0xf539d22d22190ccfU, 0xca0bf136e1f64307U, 0x140e23f3ffea020dU,
  0x4cf7101a1ff1f3f5U, 0xe0420f29240715d8U, 0xc3201405fe274809U, 0xf0206f926fc0b41U,
  0x36e0280808271316U, 0x8280c0a1a3b1be2U, 0xdf102a3a14254cd5U, 0x180f1316111a0a22U,
  0xadee91d07203902U, 0xce1ddbf81b28f8cdU, 0xa391dfdfffa23feU, 0xf3f9fd080f0acf17U,
  0x33011de508f3f5fdU, 0xcd300315ea48d8d3U, 0xc60b0b1d181f4bfeU, 0x2004040a23efd201U,
  0x20ed2dfeec03f62fU, 0xe745f02bf230c9b4U, 0xeb0816eff7dc46f8U, 0xf7052b110efbe80cU,
  0x3e07fe1f071c1b12U, 0xd71ad31000120fcaU, 0xc021ec33d2e34fdfU, 0xe6ed33e9f8ea1718U,
  0x20151612f8ef0c25U, 0xec34fc13e74509e1U, 0xe834fd2414fa19ecU, 0x7fb271af62fd40dU,
  0x22081e06f52feefaU, 0x133df129263cd1ecU, 0xd8020ff3f6e841f4U, 0xf73209ee2aeee6faU,
  0x1ee7291c251e1b24U, 0xf51c13241b3de500U, 0xce2c2632dd025319U, 0xe3ef09edff2502ddU,
  0x23dff714e9f9f91cU, 0xcc45fdf90a42e2beU, 0x2021914041f27fdU, 0x2320fd0bef100eU,
  0x351fed1403eb04faU, 0xfb4bd8fef70cd3d3U, 0xd2280400ee242f0bU, 0xf4162edf0df71912U,
  0xbeb1ffa09f52313U, 0xd30f011194500d5U, 0xd321250fe5254902U, 0x1c14131f370ae41fU,
  0x41f4e9f709022b38U, 0xec29f7330c2bc903U, 0xc63a1306e7ff58e9U, 0x1a1802e90029f5d0U,
  0x31f9e703fb21ff1bU, 0xff20da290e2bba05U, 0xf11b312a0a2d571cU, 0x24161228110314f6U,
  0x4e0126d5fff91f3dU, 0xf830fd2bfd14defaU, 0xeafd0e0ae40270f3U, 0x340b3f140a13f20aU,
  0x1a11000700fbf701U, 0x175f01373006df02U, 0xdc06142d020a631dU, 0xfea352c2b2919dbU,
  0x321ffe052ff2e523U, 0xe655d00c181ee9dcU, 0x9361034d92d4419U, 0xff2b0ef1f602d9ddU,
  0x44f826d60b33ed01U, 0xa4110270e29bda8U, 0xd613391e20102707U, 0x14fa252531f9f5c8U,
  0x38172bd82eed202bU, 0xf01be7f50a14afe2U, 0xd0fc1e29032260e7U, 0x1fe607f9352ffbf9U,
  0x48f6f2ca14ed2e31U, 0xd810f7192914f4abU, 0xdf9f923fe0228f8U, 0xeced0cf31d0dd6d3U,
  0x501c0b081bf32f29U, 0x136e71f0025f2d0U, 0xee1a14f2db0c1feaU, 0xd071526f20cf308U,
  0x2df732de0915f024U, 0xfb1cd1140b1de5e0U, 0xf21012f5ed1450fcU, 0x1ef1131c0519f7f5U,
  0xfe32b14eefe02fcU, 0xeb0afbfcf334efbfU, 0xc3fd2c2e08105ef5U, 0xf22404f00f1403e0U,
  0x4007ece10efdf70cU, 0xd33ff817290ab8deU, 0xfc3129331a052afcU, 0xfbff2325210d0dfaU,
  0x9edf9d602ee2ef7U, 0x22f2f80743edc5U, 0xdbf9f20619e11f01U, 0xeb0f2f03270c130dU,
  0x27f807f9ff1bf8f9U, 0xca1bd704f924c7f2U, 0xd5130405e1ff2cf4U, 0xe1f3192432fbeedaU,
  0x2a091fe7f923fe2aU, 0xcb140606f448cfc4U, 0xc51e0200db231f1aU, 0xfaf62ffef520d41fU,
  0x3cf929d90c16261bU, 0x10fe8fd040003acU, 0xa281802f71033e8U, 0xf3f8f9e42522f1eeU,
  0x3b1f130a17fbfef2U, 0x31092eed2de9ccU, 0xd4062ce8e1ff4117U, 0xe42237f703031200U,
  0x24e807e2f0e913ffU, 0xd02afe2a211debb9U, 0xeef12924130164eeU, 0xe6e10701f72d1719U,
  0x3403fff9f105ed07U, 0xf33092d112dcdf3U, 0xf7282c16dd014af7U, 0xdda2508f6ec15daU,
  0x471f0ad12d170e30U, 0xfb58dee9fe3feff8U, 0xc1fe050bf2fd4defU, 0x22140a260222d0f7U,
  0x25f029e105190733U, 0xf43bceeb2734f3e5U, 0xc23108f8deec48eaU, 0xf5f52c0704fed7d9U,
  0x322217c9271d00f4U, 0xda43e826ec30e7b3U, 0xee4b231e06e119e7U, 0x11f01e432710dbU,
  0x43de15fade1a2befU, 0xd72adc11fc20adc9U, 0xe951183ddb042bd4U, 0xae8ff0a43f9fef5U,
  0x1d0a3b39f1e83922U, 0xc620fc19f00fabe5U, 0xcc460a0f13e0380cU, 0xde0fe81828fe111bU,
  0xde02223f71e342bU, 0xf40af1fafd2bef08U, 0xf2f8fb1109fc00e3U, 0xf32efef93a19f70dU,
  0xb3c32f53f13faU, 0xd62dfc1ef645f0f8U, 0xde0c1524f91c2007U, 0xf00ef9f612070005U,
  0x25d23908d81b2c11U, 0xfdfe01f71b51ecf0U, 0xe725073bf5dbeffeU, 0xd39081b1711dd19U,
  0x22e71f01d9000646U, 0xf915cf0ef44bcf14U, 0xbf19090900002beeU, 0xff1beafaf72ddd16U,
  0x1bfa0c20063f343eU, 0xfa3d0d1c2344171eU, 0xfdfa390ce1094b11U, 0x2ae03bfe2820ec1aU,
  0x2aeb180bed35014dU, 0x412fa09f844da1cU, 0xd0121d16e513340fU, 0x1f61f0af334e30bU,
  0x2e2ffdeb2ff3e707U, 0x62307f8f620ddc2U, 0xd03706fe100b6f1eU, 0xe9e90cef3405e911U,
  0x4216f8d71a271b10U, 0xdb22fb16ff2fb8adU, 0xde223449d9096104U, 0x19ed1ffb472ffe28U,
  0x3a08060de0130cfeU, 0xc4380ffae20cdbc8U, 0xc24e1d20f0f511ccU, 0xe926f7e249f0ef4aU,
  0xe8592be2113f10U, 0x608d41afe47fbc5U, 0xff2a1e22f8f62f0eU, 0x144722174a25d62fU,
  0x40f92d1ffaef3b13U, 0xcf1ccc151526ebd8U, 0xb27230608e632e5U, 0xe04419e12a01e221U,
  0x10f934f512403132U, 0xf717e0260940e81fU, 0xd404000fe21d54e0U, 0xf01c1c160508dde3U,
  0x7ee04101c4c0c28U, 0x142bde2c3354f03aU, 0xe8ee1afae5ed31e3U, 0x6f33e271119d6d2U,
  0x15ea0be91f0b2419U, 0xfa4ce40ffc3ae2d6U, 0xcd14102ae9fb4914U, 0x9e1fa0203011214U,
  0x4b29df15fa03edebU, 0xd5520c2f290ce6dcU, 0xc01e07140f003006U, 0x1a172911fe1df4fdU,
  0x22011eec2ee6102fU, 0xe811f2ea1d2ea881U, 0xc5f62414e01948ecU, 0xe7e514fe09effcf1U,
  0x130f0ef0fa17eff1U, 0xa1ef4f50039f8a0U, 0xc9f4fdee0528531aU, 0xf8f531f2ed0bdce3U,
  0x312028e10b090bf5U, 0xc91cf82ff406c4d6U, 0xe8180bfbe7124806U, 0x2e8f824ecee031bU,
  0xf21e4db0e1d08f6U, 0xe15fdcf6f242e09dU, 0xd1e9172c0af934edU, 0x14e6381505eeed08U,
  0x2500e0fa0825041eU, 0xf1ad1f5f800bed7U, 0xc31b0c1ae3e524e9U, 0xe7e4eff0f924d50cU,
  0x2a0508fafd1ef10fU, 0xe35bf221ea3fd4afU, 0xe718fd2ce71a4f1cU, 0xfe29300d11001005U,
  0x360505f719072228U, 0xd114de2fe642e4c7U, 0xe120fa21130d22f2U, 0xed2a02fc022bda00U,
  0x4023131ffc0af83aU, 0xea41e7f0fb0dcdfcU, 0xc91920f0dce743fcU, 0x1d040722070fd1dcU,
  0x23e111171710f04eU, 0xe93af525250bc126U, 0x3270207ddfe72efU, 0x6122ce1e715e206U,
  0x551205f4f403e41bU, 0xdf46f933f448dedbU, 0xd735243109fc46fcU, 0x81c37eaf4f906e7U,
  0x41ef00f1070def16U, 0xf84413301011c3d4U, 0xef482e2af5e022f6U, 0x15e52a18242d1a08U,
  0xe111939e7e90311U, 0xd65ee7030223e9bdU, 0xc649352a00f018dbU, 0xfd2c3bee39141448U,
  0x4b121b2d0e2c07faU, 0xda2af307f90cbd95U, 0xd00b0010200a3ee8U, 0xc2104f20e0d093fU,
  0xf212126f8123607U, 0xfc42ce092929e1b8U, 0xebff0b3eedeb2b19U, 0xef3204e127110c0eU,
  0x4dee1c412010ff48U, 0xd626f01a101c20e3U, 0x6f629f014fd24feU, 0x261a1f1e262ad611U,
  0x3a17181af5351d22U, 0x732e92f2e4900dcU, 0xf432f921f02e670fU, 0xcf00dfd11311636U,
  0x53f9fd4beb04fe40U, 0xe752f6040c23c7c3U, 0xc3570c45e10765feU, 0x302e271137ebe04cU,
  0x16fd4311f33aff18U, 0xf457da2ef73adff0U, 0xdb253b05f3204de8U, 0x1d26042414050239U,
  0x16ef36362a450d14U, 0xd01fd529ef4d00f1U, 0xd605012a0ff24bf3U, 0xf912fced05200c32U,
  0x12fa5159ec373723U, 0xe45ff9250f380bfdU, 0xbe0f2602d6064bf2U, 0xff192be539f3e444U,
  0x2f09374be8453510U, 0xcc3bf820123e29f2U, 0x603134f03f54313U, 0x213125f029f71532U,
  0x32f8385231090c26U, 0x422f330040c22d4U, 0xf73b0a1af6254cdaU, 0xe2f01fb28eefb66U,
  0x2f200c5df63b2d10U, 0x831e31d032204f5U, 0xc9273f3717f1621bU, 0x2229251617ffd82eU,
  0x22e54c61eb380422U, 0xd410def7ea38310dU, 0xfc0a070cd5f731fdU, 0xe0190114102fd523U,
  0x24ff280e06472f40U, 0xda05f9e9eb2719dcU, 0xf3f9fa33e6f83cd0U, 0xfc44f8e72328e535U,
  0x4f31242f73a4033U, 0xe318c617224bf1caU, 0xd134033cd8fe1fedU, 0x193222ed31ece349U,
  0x1fd532150e180a07U, 0xe02dc4171d42d1c2U, 0xde2f2c29e6213ef0U, 0x428071313fd101eU,
  0x13162237e10a322cU, 0xd20f030f113fb7eaU, 0xc303002701ec1d08U, 0x1b0520e72115d6fdU,
  0x1000fd19070e1b26U, 0xf636dc1d122fecf3U, 0xe03c322b141c29deU, 0xee2c010311f3ec33U,
  0xad93641012f2322U, 0x829dc0d2d2bd1daU, 0xdb22f629110a30e2U, 0xf61411f914fd082eU,
  0x33e6342526111d1cU, 0xcb4ed5191945bfeaU, 0xea011f19ed212fd5U, 0xf84523ef102c0b1fU,
  0x2b1834012717122eU, 0xd136d014201befb4U, 0xf6221d2bfaf723e7U, 0xb0e17eb072d002fU,
  0x4bf3fb24ef163522U, 0xd84adc26f3370af1U, 0xc2d0dd6063ce7U, 0x181c180c3020de0cU,
  0x20230617f62e0d31U, 0xfc39d2290d2e21cfU, 0xf2380d39e4074ee8U, 0x293a07e5152eccf5U,
  0x4afe2401ea402727U, 0xe736fe12f74c21b9U, 0xd9270e1701fa21edU, 0x252014fa0906d71cU,
  0x480c36fa29161611U, 0xcd55ec0fe90b12c1U, 0xf8fa15f8f4ec4714U, 0xe03f261905f401f6U,
  0x410e1efa1424f933U, 0xc81ac90bec141901U, 0xd71c22f7fd0561f0U, 0x123bef24f90ae2f3U,
  0x17170df518030916U, 0xea33ff08264bf6d5U, 0xfe0920edd3e9460fU, 0x40b1c0cfe11f106U,
  0x3d1af2fc28250ee9U, 0xc931f914fb14ecbaU, 0xfeee1f210ce150f5U, 0xee01291b1c1ed9f4U,
  0x280f2218f8f60d26U, 0xf83cf91a1a0cf8c0U, 0xdf0bfa2204fa25f6U, 0xbfafaf0f7ede20bU,
  0xdd8f517f5fa0d06U, 0xe118f10e0d49e8d4U, 0xda191321f1dd23d1U, 0x1ffaf91c0a17f11aU,
  0x2c0224d80c0a262fU, 0xd703fb1a120703e0U, 0xfc19082ee2fe20fcU, 0x1fdc0713fb26ea03U,
  0x13e519e601ee2a1fU, 0xf521cc241627f4e2U, 0xf2181625faf338e9U, 0xd1d33e1130edd01U,
  0x4ae6e7ee14ddf5f7U, 0xf243df08f818f2edU, 0xc11230f3e6ea4d05U, 0x1df000e9041adedeU,
  0x34ed190e26000a03U, 0xfc510c04102cebc6U, 0x124310cd72333d9U, 0x2cf90af616310adeU,
  0x470207151407f609U, 0xeb31fdf63033fac4U, 0xfaf625f808276ffdU, 0x1b072df7f00bf1fcU,
  0x5626e0e919f81deaU, 0x5bd7382526e9baU, 0xe11e0e26f4e776feU, 0xfced16ebf92bd01cU,
  0x2a06150725f70f05U, 0xf467f0f7f716e3d2U, 0x6f80df0fdef6bedU, 0x24141e12fe1208dfU,
  0x311eedec111c0002U, 0xcc4cdf230536d2f6U, 0xf3fd11fb10fb66faU, 0xfa05fef0fdec0111U,
  0x47001a113500261bU, 0xf74c06183c39ccd8U, 0xfde83612ee0e5300U, 0x23eb1e1904ee1515U,
  0x26f9200806f70027U, 0x1a55f3272115db0bU, 0xe70a57e7ff1d7001U, 0x3a1b4c34192fea0aU,
  0x221107ff3e0d0a15U, 0x193b12280614ee00U, 0xd10c2b1df9fb621bU, 0x14f341061e2ddf08U,
  0x7af3de010a03f4fdU, 0xd674d61ef324def8U, 0xe6111212eb18790dU, 0xe7d53af12dfe0fd0U,
  0x7f1ffdcbf001fa12U, 0xfe63e126e839c4a5U, 0xc80e19230c243200U, 0xe30bfb04fd0306eeU,
  0x3103f6f6f4c918fbU, 0xda43fd05f422d2dbU, 0xee25f411071329ffU, 0x6daf30e2cf9eedfU,
  0x4af40cd521e502e3U, 0xe2350df90131bdbbU, 0xd7fffaf6f9e55304U, 0xe0db28edf709d011U,
  0x2a10e4d506f0ff1cU, 0xec2e0601221fb0c7U, 0xf0f60212f5e557e7U, 0x5cf04f82912d5eeU,
  0x12fb27c71c111c15U, 0x725cff82a1ae9ceU, 0xd1ee24f3e2e4380eU, 0x19c7120a0f25e4f5U,
  0x20f212cf18e134fbU, 0xf427fe041438d9adU, 0xd40f17fef8ef61deU, 0xdecb2e141f1a0602U,
  0x2fe3dfcbf6d813f0U, 0xfc24cb2ce621bcc7U, 0xc9de1615f9e32bedU, 0x9d70207fa2bef0dU,
  0x1ad522b617d72f13U, 0xdb1bc3ff0304e3f0U, 0xefea2e1703dd20d8U, 0xe20731dd2401f004U,
  0x42e907db1aef27f7U, 0xd41df9f0fd21e3efU, 0xd8d9ffedf10c3de8U, 0xf2f712fc0e26d50aU,
  0x13f519f9f8da251aU, 0xf721d2041e3cefb7U, 0xccfb1910f4e54109U, 0xfce2171f0f2a040fU,
  0x11e4f1f9fcee1726U, 0xe2603130102d5b8U, 0x4da1ce719085018U, 0x20e50af92e24f9deU,
  0x12f6fee62dd32c15U, 0xd226fd12ec41c4e9U, 0xcef829d3ee1c2f14U, 0xeec026f028f6dfd7U,
  0x481efbb428cbef1aU, 0xe041d2162b19f6e3U, 0xd3ec12fcf90354e2U, 0xbc0f8f8001e0bd6U,
  0x20080cd814d125edU, 0xd243ca03fb04c6e9U, 0xd5ff36ea00f93df6U, 0x12e10be9280b0af8U,
  0x37180ab302ee2705U, 0xd442f6ee0038bfabU, 0xd5eb30eeedf65104U, 0x1bef1f0c2e2ef0fcU,
  0x24e0e0c9ecd5ee1aU, 0xeb2fea23010ed7c0U, 0xc1ec2206fedf5018U, 0xedd901e908f414e9U,
  0x18f6f8edfef82f02U, 0xcd1efef10d2bddbbU, 0xe21e192bf40b4513U, 0xe6f90a1806f912c9U,
  0x4ff1e1de02e4fadfU, 0x2101313f4ffd1b2U, 0xc02e2050d0e711b8U, 0xf4f006e315fafe04U,
  0x15fe4c2d09e635f6U, 0xd01001dde01dc9efU, 0xd840f227c5e7fcceU, 0xd215faf711f1fffdU,
  0x2dd13e37e92320fcU, 0xeef7eed0021fd91cU, 0xf91de30406df0aeaU, 0xf4f1e0e92b03d121U,
  0xfde2d03ceec3bfcU, 0xf52001dfe92f0addU, 0xc5140818dc100cf4U, 0xe927f0cd171009ffU,
  0x2fe038f4f40022fcU, 0xdf1cc112171ae7ecU, 0xc3420742f1dcf2c7U, 0xe040e7d40c0fd907U,
  0x1ec91413f6121419U, 0xce1df805131df7ebU, 0xd2ee1fe412fd18f8U, 0x25320f22f7e810f4U,
  0xf5e7feea030b4161U, 0x2090b003242fe3cU, 0xf92318ede8f867f2U, 0xee0330e25ec10fbU,
  0x1cecdcc61411f819U, 0x1c0ee60b332cf6f1U, 0xbf083420e0ed60e4U, 0xed3df81f19d9eaU,
  0x6510d2c604e6200aU, 0xf53bd8290d0fbfb4U, 0xc40c02eed8255e04U, 0xe3042f012705e2dfU,
  0x1de7fac9f20f09f9U, 0xc721cd34e226e7b2U, 0xe030f54fdb093310U, 0xee111adb5301f6e7U,
  0x51fa201a1af6110cU, 0xe3450ef7f519e786U, 0xc354182f06f70b07U, 0xebea11ed3215f931U,
  0x1dc4929f21314f5U, 0x105df0ae73de2d2U, 0xfe1beb26d00dfb09U, 0xa14f6193611dd10U,
  0x18055227f3063c00U, 0xe616ddddfb4815fdU, 0x8e2171eecf01c00U, 0x26827ff2af9eef9U,
  0x15e02a110d33263dU, 0xf528f2da2b1ff077U, 0xb031a11dd0a351aU, 0x23ff3afbea2a09ecU,
  0x31f8e2d40a491a66U, 0x11060f323246fc33U, 0xf503332510f86114U, 0x1cce36111505e3cfU,
  0x3a2ed2bf29ee2afaU, 0xf944e34b0421d29dU, 0xc50e1612020e3b05U, 0x2bcc29eb301adde4U,
  0x420514cdffd000d6U, 0x946fb36f7fcb0c5U, 0xf7303d020312490dU, 0xe4c520f40500e6e6U,
  0x5624f4ebf1da220fU, 0xf634cd23040a9f81U, 0xe8003a13ddf23215U, 0x20f9f807130af400U,
  0x3b252ae113f7edd4U, 0xc64d06f52f18ba8cU, 0xe3f5f80ce52145fdU, 0x270210eafd220fecU,
  0x2bf20614fa13ede6U, 0xf414e505fc40c7bdU, 0xc622091df2f332f7U, 0x10d1d25f20beb0aU,
  0x44e4f20622e51b08U, 0xca47cbf4280ad1a5U, 0xe80104e8e40448dcU, 0x5f800fc2e1bff02U,
  0x3ce819cff6e50efaU, 0xea1bdb132429e6cbU, 0xe1ed0bedd7061b09U, 0x29f6140f2d1bd629U,
  0x2516faebfbe530dbU, 0xc84ae20d0730cec6U, 0xde17f733f5e8231cU, 0x13e933fc1b01ff1cU,
  0x4fe61727101c011cU, 0xe244f9fb1419d6beU, 0xf42928e8f02848deU, 0x50b2fe4ee09fcdfU,
  0x47ef0d1818271f10U, 0x423ecf8360ee8faU, 0xdaf13de9f12f51f4U, 0x1adb110ded13f6f5U,
  0x70bdffafb0aeb1aU, 0xfb18f40c040ef6e9U, 0xe6ef4fdffdef6011U, 0x3009351303f619f7U,
  0x4e38d5ca231b000fU, 0xe566fa04002ce7b3U, 0x23148370821780bU, 0x8f93923210be1e5U,
  0x3d0e100a17ef081cU, 0xef48dc28f72ac7ceU, 0xdc3620200cf955faU, 0xfad122f24a200e24U,
  0x61f4491c15f329f6U, 0xe75f013e3509b693U, 0xef56fc29f1255e1dU, 0x401340925fbec21U,
  0x53fc4d4a12120225U, 0x122fe60c021ce6b4U, 0xd4420050eef256eeU, 0xe600bfe2a250044U,
  0x48152932fc412620U, 0x1049f906020ff5c2U, 0xd31ffd0604235801U, 0x1c3eff042e15d730U,
  0x2beb29420c51023bU, 0xdf4ddc213e1bf7ebU, 0x2c1019ec22380aU, 0xf0353e223323091aU,
  0x4a01f9e1fe44f93aU, 0xe6460bfe0a22fbd6U, 0xd6622d62080f6a1eU, 0x614ff060805f018U,
  0x3ff8473a0603301aU, 0xd11611112a0bfeadU, 0xd324005f1ce962e2U, 0x1b5339e64801fb0aU,
  0x34e93d47302b31fcU, 0x11fd52af91aefc6U, 0xe4270133d6f53ef8U, 0x35a35fb23fffc5cU,
  0x47ff1f4a2551153eU, 0xfd4708030610f4d6U, 0xbd121356eef959d8U, 0xf8530b0c2313e62eU,
  0x29fb5057fb48fa19U, 0x12b09082d2322faU, 0xc51b001f03224104U, 0xe2f25ef0218fb4aU,
  0x24f05157fd361a30U, 0x155f90af10f15e2U, 0xc21f1b5019ec60f3U, 0x280e0b2629fa30U,
  0x2e043160f434050bU, 0xf02c04fb234501daU, 0xf13c11220bef55fcU, 0x1149241f41fbd02dU,
  0x5e0c5a4b1d222405U, 0xd65ee8380f0900bbU, 0xd75f1a54f40a4005U, 0xe83b1028480ed25aU,
  0x51ee2e5a0c460526U, 0xeb23e41e27090215U, 0xf51e9a57c8cc83afU, 0xc16ec1c26ce9e57fU,
  0xcfaf576f8e6f7675U, 0xde99bcb2ec6e764eU, 0xf33c559d6d9aeb4U, 0xce43c6ee57f6fc49U,
  0xc2c15047c97c6a71U, 0xd2bacca9095b6017U, 0xf2acb43dae9add3U, 0xd252dfdd4e090235U,
  0xe5c35753ab583146U, 0xf1acd7d0f34748f6U, 0xf60ec22bc8c1cacbU, 0xd64fc1ec5d07115aU,
  0xced13134c434441cU, 0xf1d8dad6dc2a3901U, 0x32ebc39e4c5e7daU, 0xde22b6c44ce4ff2bU,
  0xecda3b34e3182b1bU, 0x9e2fee40f2d27fdU, 0xdd0cd45bd6eabdc1U, 0xd026ede94015fe38U,
  0xcaf44550df112f2dU, 0xe3bfd2c5fc2237feU, 0xdd39d036ebd6c2f0U, 0xea2fd9fc5104eb39U,
  0xe7f92a48f4133520U, 0xf4e0f2cb08142be8U, 0xc18f21af2e3d4ddU, 0xff40e7ef2aee0130U,
  0xdcd42139e73f2532U, 0xf6f8f4e9e94b1feeU, 0xf91fde30f2e900dbU, 0xe428f10d1105e02cU,
  0x3de4246d81c3344U, 0x1002e9fb1d194a08U, 0xf21be447e70112e4U, 0x617ddf0221f111cU,
  0xe5ea2a44e6261745U, 0xdee8e0f401123afdU, 0xf91fe92dfbf7ebe2U, 0xe042e9ec1608e037U,
  0x14de2c36de410914U, 0x16e3f8f0e8252f0aU, 0xf923d93ffd050705U, 0xfa1fd6da3af81337U,
  0xec39200a111337U, 0xfee8e80102094020U, 0x62be045e302f408U, 0xe224e7ee2ffffa22U,
  0xe6f54216090f251bU, 0xf6f0f3fce2164b01U, 0xd514f3181308e6fdU, 0xf53400e23502030aU,
  0x60a3bda303e1fU, 0x11e80604f6271115U, 0xe417ff38fadbe904U, 0x73fd60e370b0b37U,
  0xdff53835ec343704U, 0xf603ecf0101e2e0eU, 0xfc3af112e6dbcef1U, 0xff3cf4e91e0f0e17U,
  0x5da311fe418160bU, 0xf1020cfdec2b3609U, 0x70ec700d7e1c0edU, 0xca2fd5f32d11102fU,
  0xf0f01d28d1282ffcU, 0x9f004e70a132c0fU, 0xb23c80411f5dddcU, 0xf921d508150f051fU,
  0xe1d82c2af3fa422dU, 0xfde609f2f9110cfaU, 0xe1fbdb1de6f7cde5U, 0xeb0feef833eb02fdU,
  0xdcd7132bceff1224U, 0xf9d80cd0f7080223U, 0xedfde50de8e4f9deU, 0xd12d7e61314052aU,
  0xd304191df8fa3fffU, 0xe7ccfaf4f42bf320U, 0xf22cf500edf1fd0eU, 0x112009fe0a0000fcU,
  0xe3050a10e52a3234U, 0x22e109e7fe1a0b1fU, 0xdbefea241216e90bU, 0x91909e829f2e40bU,
  0x3fa1410eb0b2dfeU, 0x260c01ecee2a2801U, 0xed1a0811f0eae10dU, 0xf12202f821ec162aU,
  0x17012205f9fd32f7U, 0x20feec0e1e07ee0fU, 0xf122fd001cf6faf0U, 0xeefd061f39fbe311U,
  0x12083006fbf714f7U, 0x16fdfcf916111d2bU, 0xcf109f4edf5e8ecU, 0x608e6031218e51bU,
  0xfc1a211611260d02U, 0x1ee1514fb15210fU, 0xfa021416ffebed02U, 0x1dffe80b0ff30701U,
  0xf30519f602091b28U, 0xf6e3fc0b01020510U, 0xf8100f0df21e0cfcU, 0xfeff0e0b0ffa061fU,
  0x18ef1b05e9f31821U, 0x10ec0213f809ec01U, 0x50df9edfaeff90bU, 0x1f18f9060a03fe1dU,
  0xf6f8010207e92e17U, 0x211e04fd022b121dU, 0x170b0f0a1af31820U, 0xe7e7e31717fbfbfbU,
  0xf0ed13e40ef907eaU, 0x1907eb08081ffa00U, 0xbefdcf10be6fa0bU, 0x5daf1f513f3fffbU,
  0xf4040aea030a3315U, 0x9d418e10717e803U, 0xf0ebd4fbebecda04U, 0xe7f403fa3ff5f901U,
  0xe6f62efb0509240cU, 0x1be308d40628e904U, 0x1c0c07ec06d9f4deU, 0xf801f3ff291400ffU,
  0xfbe005e7fde2340eU, 0x16f505ee0c1f0a24U, 0x3f804eee7ddf4f3U, 0xf2d7d848ec0f13U,
  0xfcf00904f8cf2610U, 0xf7f9010edcfc0d13U, 0x1ad7e9fb00f0c5e7U, 0xfdeae4052c020e21U,
  0x2da07e8dae910f7U, 0xf1e5f802e9ff1d00U, 0x7fdfbdcdcdff7e2U, 0xfbe5dfda0bf70413U,
  0xfed01bebd8cb11feU, 0xedcadde6e62521fcU, 0xf1d7f10de3fdc005U, 0xd9f3d9df2b081214U,
  0xd7ed2a03e1ef3103U, 0xf5dfe2deec08f304U, 0x2f9dde4f0e1b6eaU, 0xf8c7c4e536f50922U,
  0xe0d508d0f6de13f6U, 0xefedfde6f50e071eU, 0xf7ffccddecefd7d6U, 0xe3c1bbef10eb1609U,
  0xefd01eeadaeb1b03U, 0xfdd001d0faffe81dU, 0x15edd2f2f9cdc0d8U, 0xd5d5d2d03f15eb14U,
  0xf6da25d0bbe319f0U, 0x1be409cd05250b1dU, 0x1f01d50501ded2fcU, 0xe8c4cdf017000d11U,
  0xfafa0805c9f52ffcU, 0x1b410cfe62a0203U, 0x5dce4c705ecd702U, 0xecc9e6d91fef15fdU,
  0x2f8f2cbe1de1ef8U, 0x18c209cf06121c39U, 0xf9d8f1ccd5cce5ebU, 0xcecfe1ff21e9f60fU,
  0xd300f7ded1cd40dcU, 0x1dfe5e2e90712f5U, 0xfed5edf6d9d3cff7U, 0xc3dbe6d422051617U,
  0xe4f0fbf2b9e93505U, 0xdccce9cb02faf22cU, 0xddde1e3d6ecc3c3U, 0xc9c2d3cc1804f8e9U,
  0xd5ed20dfc8e41510U, 0xfcdf00d7e9210429U, 0x12eede00f2c5cbeeU, 0xd8d2d4d218eaf60eU,
  0xddf411e1dcd43f12U, 0xfca2eebde326e843U, 0xb0cdfe106daa2f8U, 0xebc5bdd31311e8e6U,
  0xd3c7f1f8d3f61efeU, 0xeeb8f3e0f7012a04U, 0xfd11b7ded9f9a8ccU, 0xd4e0ecd8200a0beeU,
  0xc3c9f3e2d6e043e8U, 0xfcee8bfdf30e724U, 0xfddcc5e7d7e6caebU, 0xbfe4cfdc27ef0dfcU,
  0xf1ecf7e0efc32306U, 0x9c304d1f02ff8fbU, 0xe0c2bcd6ffe1d1e2U, 0xe4f0c8ec290be7e4U,
  0xf3e916ead3ec0ef9U, 0xfae2f6d4fbfd090eU, 0xf7cedbcfe2fcc9f2U, 0xd5d9d3e53efae5f5U,
  0xf5fafccbe9c01fd1U, 0xe9b8f7ec0714ed15U, 0x300e7db05d9c8d7U, 0xefceead514f400ecU,
  0xf4da1ce6c0c81c07U, 0xe1d415f4e5f91746U, 0x1018c6e1efd7adcbU, 0xf3c8e7e71ff9edf9U,
  0xe0ee22e7d5d9240cU, 0xe9bee7c607ffef0eU, 0x1118e8f3e6d0cff6U, 0xc7ded7fd12e8f41cU,
  0xf2e81401c9f02715U, 0x12dfe4daff2400eeU, 0xe50ae4fdf704b6e9U, 0xd5ece7ed201a1301U,
  0xcdc62ffdf00e2715U, 0x7bd10e6062dea14U, 0xedfdd604d800ad00U, 0xfce4c2eb120afffbU,
  0xc9effefde6fe1519U, 0xecd40af4050df724U, 0xfd0aef1df1e8d5ddU, 0xdde2e4e717140826U,
  0xf3de0415f0150bf8U, 0xe3daf5e4ec2b110bU, 0xed1eda10dbd9c3dfU, 0xe910c6db3decea15U,
  0xfaf0fc0cf2e740e3U, 0xfcd90ff4e50f00ebU, 0xe221bfffe1f1b8f1U, 0xd50deee945080220U,
  0xece62c00eef31316U, 0xe4c2f3bbd8fa1d0aU, 0xe209b831d5e0b9e1U, 0xf506b6e632f0e132U,
  0xbcea0918ce0a1925U, 0xf7b8eabcfa2d0603U, 0xe112cf1cf5f8b807U, 0xda15d1083216e529U,
  0xccdc2011c0f72b12U, 0xf6e2ffe2e63b1e35U, 0xfe1dcd25e1dec9dbU, 0xfd11eed12bf4f828U,
  0xe2de31f4e2223b23U, 0xdec4f5f7030909f6U, 0xeff1c41907edb7d0U, 0xfd16eede1b15160bU,
  0xfad91a1fc9083bf6U, 0xce00ce1ee1c071dU, 0x1304df0eea05e104U, 0xcff1ec053a00f004U,
  0xf5e027fbef140b1cU, 0xfbe00ad1101001f3U, 0x13f6cbfb00d1d5e1U, 0xf4ebecf91a0e0af6U,
  0xdfd91f12e8f33d12U, 0xf4bddee0f6130304U, 0x416d60fd3fedbf3U, 0xd4efcce037eaea2bU,
  0xd1cf2b22e9e419eaU, 0xf5cde3eed5280904U, 0xf311b720f2e3b2f4U, 0xeb1becd30feeea2bU,
  0xe4da22edc8e624f2U, 0xe4d8e0c1e52a00fcU, 0x9edf612effbda01U, 0xeafff7ee27e50812U,
  0xd9e0ffeff1fc0903U, 0xdcbbd8e307ff1116U, 0x7dfe602ea0ab0ecU, 0xc9eee3d1150b1208U,
  0xdefc2aedf6e93707U, 0xabe0df80d1af31dU, 0xc05d9f20cf0dd07U, 0xd109f2e425170c26U,
  0xf0d31cf5f6103d01U, 0xdcc2f2c4f22df3f0U, 0xe51ff6ed11fcda02U, 0xeff9eed01dfa1815U,
  0xc8e31cf2f70c34eeU, 0xfbc80fecfd251718U, 0x41cd1e8fa07e1ddU, 0xd3ffdbea2106f317U,
  0xd4de2bfcd9ff1520U, 0xaec07c91a2615ffU, 0xe2fed502e60ad312U, 0xf2effefd2ef11417U,
  0xc9fd1812df150909U, 0xecc4e9d9181d0b01U, 0x19fdcf170b11e5faU, 0xf905f0e6171d021dU,
  0xfce62604f90b33feU, 0xbfef2fe1634ed16U, 0xefe9e60c1d1afbe6U, 0xed02f0132a05ea01U,
  0xeddf16effd0c3dfbU, 0x14d2ede61201ef20U, 0xef3041110f2e513U, 0x100a0afe0e10f016U,
  0x2070ff7e0180af8U, 0xcd6190b0e2a0a0fU, 0xf11cf4291d2106f3U, 0xfbede9fe08f1f113U,
  0x2fffbf71bf51405U, 0x1c10f70cfd0c13e0U, 0x2024df1b1e23f3efU, 0xe51af6f039f2042fU,
  0x2f7282a1fdd0a11U, 0x190af5032129e000U, 0x16ed061220f7d423U, 0x1afaf2fb1ce90810U,
  0x10ea0e21ea222a05U, 0x12f5fffe110718efU, 0xf8071430f20313f7U, 0xf3010e100cf70b14U,
  0x41238fa0d042e00U, 0x2beaf8e81d0e05fbU, 0xec02f72c1b0e0513U, 0x80d0bf43af40514U,
  0x19f60315f5123dfbU, 0xf9111713e81204ffU, 0x1438d715f0fbe908U, 0x7f9efe73c1aff2fU,
  0xfc08290ff5ec16f7U, 0x3d6f1f4fa240c02U, 0xe435cb070c0700e9U, 0xf113efe7541eef3dU,
  0xcddb3b03ee274605U, 0x6eee0f0e72714e8U, 0x31dca50e7e7dfe1U, 0xe010caf548f80d2fU,
  0x6eb440de51313f2U, 0xd1fffefe323d14U, 0xdc37e01adeffc6feU, 0xe12bdd064322e637U,
  0xd8dd4041cc1c1727U, 0xd9dfdaf3ed413704U, 0xea31c22bf9ebe7e9U, 0xeb2bbb0a57effb48U,
  0xd9f3484eb725220bU, 0xd3e400f9e1373cf6U, 0xea47de41c4eed9e5U, 0xee2fd8de3818f356U,
  0xe4f54248bc052503U, 0xd6e3e9f2f50c3126U, 0xfb7fb159d1d4abdaU, 0xd035bcd44e1be530U,
  0xc8df4e78a0175c24U, 0xe7b1f9c2f8395912U, 0xfb2e220f04192ffcU, 0xf70a22fde70a0200U,
  0x2d1e0e1a21edd710U, 0x203c162907f4fe00U, 0xdf1c2d1901000a11U, 0x123403f20a10f8eaU,
  0x26162b13f91bcaf9U, 0xec15180803ec453aU, 0xef32020c06e82513U, 0xc151425e424def4U,
  0x726251e34d323U, 0xff1a1902fd123326U, 0x6431723051725feU, 0xa37fcef040af826U,
  0x10f211150525e635U, 0x271c161c21f8631fU, 0xf617fd15e7ee16f1U, 0x1c3510fff0111112U,
  0x1eec2834032bfa2bU, 0x1e040c18fe490aU, 0xb2e161e04e907faU, 0xf11e27f5141611efU,
  0x23ec1c21052ede2cU, 0xfd10f1e90bf74b37U, 0xec28051407e9f5e8U, 0xed30ff21e6f6f1feU,
  0x2d07f81ae5260c1cU, 0x1d0f16f4f5144717U, 0xa0cfa1410e30004U, 0x4071deee0f80b0fU,
  0x19140e0e08fdf90eU, 0xeff8e6f90e23153eU, 0xe8260e1c1212f808U, 0xd0512edf2ee0cfdU,
  0x1015092d0e09061eU, 0xe3150f02eaeffd01U, 0xfb11fd29f10d11feU, 0x218e906020af71fU,
  0x1dea2032de14e509U, 0x110c03eefc031506U, 0x132e082b070805feU, 0x9200609fcee0201U,
  0xf7050a1ff71be8f7U, 0xf0faf2f7180b1806U, 0x90f0906f003f4f1U, 0x171f0df112f90c1aU,
  0xd0805150209f102U, 0xfd0800fe20f80704U, 0xfe320404021a0210U, 0x5f7fe01041c0122U,
  0xd0132380728f108U, 0x121a0df2f9f4fa0eU, 0xf63dff13ecf320f1U, 0xe91c0b06e300e012U,
  0x2d0c3c3af40bef19U, 0xf1b01042603ff35U, 0xf6121406f0ec0cf0U, 0xfe14fc03e90a130bU,
  0x7ee31261c0bf129U, 0xc2bed170afa0d1fU, 0xf62c1706fafb1b02U, 0x1615f7fa0122e61dU,
  0x2a163d211a32eb11U, 0x2221f3052e05182dU, 0x32d1422eff023f7U, 0x11261c0a0d16ee23U,
  0x2ef81d4b140ee12eU, 0xc27fb1b141e1701U, 0xe23e1c27fc1612feU, 0x342281d0d251606U,
  0x13012d47073e0627U, 0x212f000105280327U, 0xed422e2519160e24U, 0x93b03fbe21ae601U,
  0x120922372135da1bU, 0x1129fafb27f81a09U, 0x8252b44071c050aU, 0x22302108fd00ed1dU,
  0x360f3d530a0ef812U, 0xed0d0404131a0709U, 0xd390730020f27feU, 0x1330f616e918ed25U,
  0x27ed0f43ff0d0a14U, 0x100ae9effd04fe12U, 0x3210e1907f5ff05U, 0x43beee9ef1b1810U,
  0x15f01c430334db3cU, 0x12081621e9f61d08U, 0xfa250815fe0408e5U, 0xf62107ee07fffb18U,
  0x1f1b3d2df022de06U, 0xe70d0d070714fe13U, 0xf51c1c2407160e0aU, 0x1c2b12130cf8ed18U,
  0x4e7081f010c0136U, 0xf8f3df03ef27302eU, 0xfb38203cf9f7f707U, 0xf0121a00fe09f603U,
  0xdf03c28ed0efb0bU, 0xf6f00defec1b3230U, 0xb35012ff1181ffeU, 0x3ae9070019ea06U,
  0x9ef3c33f60ffa2cU, 0x130ce2edeaf0ff13U, 0x480023ed050e01U, 0xf0380d0f14190809U,
  0x10da272408320a06U, 0xe6e4071ef2fd380aU, 0xfd3afb17e2f7fbdbU, 0xdd3f0cd812f8f706U,
  0xe7091e52e01f0822U, 0xdb06f2e601083910U, 0xb351130fa0cffe4U, 0xa32ffea1f160611U,
  0xe5dc3437e91b000cU, 0xe411f4d7260b2300U, 0xfc00f125f5e90e11U, 0xb45000cce01f92cU,
  0xe0e5233ff638e115U, 0x11feebfd08341c49U, 0xfb0e2043f02135f9U, 0x2a2702f6edf5eb1eU,
  0x24fe14380d35041aU, 0x14261afd29fc0d08U, 0xe7321a36f91e2c14U, 0xc442a08f4fef50aU,
  0xff2a342b203be83dU, 0x1110180e0c241c1aU, 0xdf27121b040734f6U, 0x213f2821f5f408fdU,
  0x2d192e532a31f728U, 0x2820f6ff122d3e45U, 0x5552149eef509f8U, 0x1490cf503040727U,
  0x112841581b3bcf36U, 0x1b231c160f050139U, 0xe249fb4111030305U, 0x26491af2e6fb0d09U,
  0x6092744093bee2aU, 0x6121614ff2e0b2bU, 0xe5282616fb0a2a1fU, 0x142b1af40ef0fd33U,
  0x300d334bfa43fe10U, 0xb11061613232638U, 0xf54d343bfff82f15U, 0xe340b06e1eee81fU,
  0x291b303e1329c918U, 0xfb2601162b150411U, 0x12d0836fdf54712U, 0x252232505fbf81aU,
  0x14043e50fa4ed628U, 0x217ff1c0bfb202dU, 0xc4e3234f603181aU, 0x64513fff516df1cU,
  0x35274c5c0c27f718U, 0xf41b022bf2010c00U, 0xe61f0e37221c37f5U, 0x34a05ef00121411U,
  0x1c1e2b6b141a0738U, 0x3114f6f6f5fe02U, 0xe626ff32ff283bf8U, 0x1300d0f0bfa0d16U,
  0x21fc47411323023cU, 0x513161e181d0b2bU, 0xf341223f4fb3120U, 0xfc3d0618edf7fa22U,
  0xbfe2860172edd11U, 0x24110c1922051715U, 0xe34927210d2230f5U, 0x22480307f70f123bU,
  0x1502306e234d013bU, 0x1808f4fa1e2e2219U, 0xe11f09471c25431aU, 0x284d0621ef07ec21U,
  0x20f745722434eb27U, 0xfc1cf400032d06fdU, 0x940174c10fe3520U, 0x183b2e030015f73cU,
  0x2f04576e1336ea3fU, 0xf104e200150e3c2dU, 0xf24efa50fe15171aU, 0xa392d02fdf8fc27U,
  0x12044e7f25420926U, 0x12919fcf6262f1dU, 0xfa1c0a11f32e2cffU, 0x325f35fcf20de81eU,
  0xc064d700936d922U, 0x81808fb051d4411U, 0x1fb32171f213409U, 0x15441d25e20adf40U,
  0x92e2149324dbc3aU, 0xef332039fe271c28U, 0xff28111f1d1b602aU, 0x36443913e1060fffU,
  0x32381043373adf1aU, 0x921ef32feff26f6U, 0xf436432819035317U, 0x353f1f23d0f0e420U,
  0x400631381119c637U, 0x1220e53015012417U, 0xc164240f8fd58fcU, 0x3a2e262ecbf0f708U,
  0x2c2f41343314d11eU, 0xfd1ff520290e3c18U, 0xef2b1c0310fe5823U, 0x32113921f715e903U,
  0x38242e49191bcf0bU, 0x204803310cfcfff2U, 0xe0243149fb1c3520U, 0xf703131a0f12f91fU,
  0x4c21384c0209ca04U, 0xfa2b052a04e9fbd0U, 0xf64d1f1fe3e82cecU, 0xe5effe20404f63dU,
  0xfe0e374f0129e01fU, 0xf02cedf0e8081810U, 0xff4b173feaf51afaU, 0xe2471a1b09f70c2dU,
  0x200648561117dc13U, 0xe01e0011fc341b2fU, 0x223092001ee2df8U, 0x152804f1d9160a08U,
  0xfae550461532e246U, 0x17fae1eb11132a26U, 0xb24202106fa1d19U, 0x25420d01ece9e314U,
  0xee11431936e53eU, 0xf92af5f70c37143aU, 0xf1322fb0c1c4dffU, 0x2d272a25eef9011aU,
  0x120b08301e22d928U, 0xf33e192e0c220423U, 0xf906290cf4fa4cfaU, 0x26012e14e5e9110dU,
  0x201bfc0a081ced1dU, 0xf91a1a2e221af506U, 0xe2253441e3ef3cf8U, 0x7091417e6fb0c23U,
  0x202a15542006d306U, 0xdd2fef2ae90effb0U, 0x24efd1fe0f0f3e0U, 0xdf34e4effe22001dU,
  0x9015a5e08daf9e4U, 0xe52feb0c05f618c9U, 0xfc221117ffeffddeU, 0x624ddf5ed14ea29U,
  0xd8dd3564e94f1352U, 0xeedfd3dcf40e2529U, 0xf503193ae4e9ff00U, 0xe8431211d5f8093eU,
  0x15fa265dfe39e945U, 0xecf8e614182e453eU, 0xd27f941ef091f1cU, 0x1a552207e415dc09U,
  0x23f40750ea23dd3cU, 0xf118152710171725U, 0xd100c2c05f30810U, 0x202c2705e1f6f52dU,
  0x20102c23223cde3cU, 0x603fe0ef1223228U, 0xf344291d050a1beeU, 0x10d0221e1fdff1fU,
  0x21082629ee17ed2dU, 0xfc290106f3102616U, 0xff4f1720eeea3219U, 0xfc1a2119f027040aU,
  0x22053a3a0014d626U, 0xe11f2fc270ffc23U, 0xeb27100e0dfa190aU, 0x242b2c1cf814ff08U,
  0x5222322f437f519U, 0xfa15ec27200aef49U, 0x13aff2811fb31efU, 0xf2180f1709210bf0U,
  0x220d3821101af617U, 0xf22de00d2221002bU, 0xfc210600eeec0813U, 0xd26061ce7ffe7eeU,
  0x1c0201331135d108U, 0xfb250efb02290217U, 0xa360435f1fe14e2U, 0xed01181100f90a02U,
  0x2e021525e7f7f303U, 0xf0feea14031afae4U, 0xa3f0313f4f815feU, 0xf2150b03fef70c32U,
  0x35de2353e117e207U, 0xef18f718e40bfd02U, 0xda45fc3edadd08f6U, 0xdc1edeebf31ce131U,
  0xd084832fc12ff09U, 0xecea04e8f40d082cU, 0xf309ea06fe0cdbd6U, 0x417faeeed0eed2fU,
  0x11f83923fe3cfc12U, 0x305f0ed0b280031U, 0x14e71bfd050efadeU, 0x4115fee7e8fa31U,
  0xeef60dfadd2f0420U, 0xf6e7e819e5123a48U, 0x1fefcddf0fc110aU, 0xd12eefde90ef0e6U,
  0x23fced07e137da13U, 0xff11fbedfc131b32U, 0xb0b1ef205e619dfU, 0xfff1f2f1c61de5e7U,
  0xbeaf608eef4edf1U, 0xe713e0041419fc15U, 0xf2261317eb0e0ff9U, 0xfcde1ee7d2fceceaU,
  0x16ee10f4f3f8eb1aU, 0xf520f1040e111b1bU, 0xb340a29e5ea2003U, 0xf2022fddc1d0207U,
  0x21fb320e00f8f8f5U, 0xda2cf5fbe2070014U, 0xf011c0a07ee0bf0U, 0xe31bf7eced00eefdU,
  0x12f31d1e1019eff6U, 0x15f6f215e6f4f630U, 0xe60322e0dcee18faU, 0xe6130e17d9f21000U,
  0xa06f20f0a0be707U, 0xf0fb12ecfc0a222bU, 0x121bf5fbed04efecU, 0x14170906e721e9faU,
  0x1008dfe700ddf003U, 0x41ef7f4e8e8e823U, 0xf0f513f70bf907efU, 0x110b1a0e012106f4U,
  0x1112fb07dbf3fc00U, 0xf514ea15feedd616U, 0xde0a0c09d6dcf60cU, 0xee151312ddfaecd5U,
  0x11d8f9e4dde3cae9U, 0xeb0cddfbf70fe414U, 0x1426fe180c03eaf9U, 0xe816eb0bde05e9d4U,
  0xaf11203fd0ff50dU, 0xd0aee080402e51cU, 0xeff1f1e807f0f1eaU, 0xf1eefeebdff7f5fbU,
  0xaf6daf8e708e124U, 0xdfebed0cf113e50aU, 0xf10e1903f6e9140dU, 0xe02e912c31100f5U,
  0xdf2efe115e8f0f0U, 0x16f7f605f4edeff7U, 0x2ded0ce8071af50bU, 0x7ed0efff80c10b1U,
  0xfd24d2cc0fec0bedU, 0x18f51c0700cdc304U, 0x18e0fef306fb0214U, 0x10e6081ee61403b9U,
  0xf516bebb0ce6ffdfU, 0xcf1281912e6d4f9U, 0x1ff315d60008f927U, 0x16d913ffe7ff1e9fU,
  0xa14dfd716df0adcU, 0x1f0d041a18ceb406U, 0x21f711d52715ea0aU, 0x13f316220af70fb4U,
  0xf619e0ca1df408e9U, 0x2bef1012f3d7c2f6U, 0x16e308e31f19f313U, 0x1edb0f10faee0ba7U,
  0xf902cecd18ebf4e7U, 0x29000f10f7d9c806U, 0x2ff00fd80a20ea04U, 0xafb0904f2f315aeU,
  0x111d4e316ef0bfaU, 0x509ff1709e6b808U, 0x29e9f3e004fcebfeU, 0x4e20106120020beU,
  0x8fdd4c303ebffe1U, 0x20313f90bf3d2eeU, 0x24e813fe1f1c071dU, 0x10ff1714030504d0U,
  0xfd0ee1e41cef0be1U, 0x11e10c1106f4e007U, 0x2adf01040f0fe71aU, 0x15eb161bf10803cdU,
  0xedfccddf19e2faebU, 0x26eaff06fafcfb09U, 0x28fd15da020ee505U, 0xf9e3fbfdf21203d6U,
  0xe612deca11f105e5U, 0x11e305f7eee2f80eU, 0x2addecf52017e620U, 0x8e10f14011116c3U,
  0x10dcdf018f023f7U, 0x25e91c15f7e7e611U, 0x2dfa09f70413e71dU, 0x1fbfc11f40115d2U,
  0xf2fcccd3f5ff1af1U, 0x19fe180101f3dc0dU, 0x2dfa15f01dfb0400U, 0x17dd1214f8f21dceU,
  0x7ffc3d7fdecfffdU, 0xeef270704e1d415U, 0x29eb01f80e13f00aU, 0x1de60e1cf0151fcaU,
  0xe214dbf1fae41eeeU, 0x17ff01f413dbe2feU, 0x11edf6f2121d0908U, 0x12e80afe0ffe0dbbU,
  0x50ef0c70bf3fef1U, 0x406210016d9b004U, 0x1fd8f900130fee19U, 0x14ec10fb0ef40fbbU,
  0xeb16ece104fffee1U, 0x13f8ff0a10ddcb0aU, 0x18f2fdfd11fbe018U, 0x10eb0c1c10fc0dbcU,
  0xe911ddde01e20ff2U, 0x21f21ffa12d79ef6U, 0x1ff3fbe11507ee1aU, 0x18d9140ceff125d4U,
  0xf218e0d30cfd25eaU, 0xfe60c0705f19e04U, 0x25e7ffdd181af325U, 0xae402fcfe030ac0U,
  0xec12e7ce06e403eeU, 0x1fed0918eddda903U, 0x10d9f3dd040ff806U, 0x17e1140406f225e1U,
  0x50dd4c40ef312ebU, 0x120e150efce5a8feU, 0x11e009f9090a09ffU, 0x10f9f51f06fd05bcU,
  0xfc00f1dbfaff11ecU, 0xce906f810ebbe05U, 0x26ed15d80619f020U, 0xf6161a11151dc2U,
  0xe6feebd9fefc00f0U, 0x14f21d01fdfec6faU, 0xff906f5201cfe03U, 0x1df3f8f500f01db6U,
  0xb10e6e619e90ae3U, 0x8f01bfa0adfbff8U, 0x2ee6f9effe050016U, 0xf7da0d01fff60dcbU,
  0xa08d5c70ef911f7U, 0x17e624150cfdb61aU, 0x25f2f3f61416e323U, 0xfad6031c05fd0accU,
  0xe9fbe0da10f41fe6U, 0x17fc09f1f5dbb905U, 0xad80eef15fcea01U, 0xf8fa17fc04fc03ceU,
  0xe315efec0aed0aeaU, 0x13e821f10de3c40aU, 0xdd9fde7151cf902U, 0x1bec1209f51012ccU,
  0xe207d8dc03ef0cecU, 0x5e70eee00f7be0aU, 0x15f2f6f92112e822U, 0x14eef30a170d03c8U,
  0xf308eecefed922e0U, 0x7e4220104efc00aU, 0x14f91aed06120106U, 0xfea0900f9fc14c9U,
  0xf910fad8f8e909f7U, 0x2bed141f08e9b9f6U, 0x23080bee16fa030dU, 0x3fd090a030e08cfU,
  0xf111e1da0fe629f1U, 0xe060213f7ebcdf7U, 0x21e108e410fdef19U, 0xf2e3f41d201618c4U,
  0xfb06c8e0f3e706e7U, 0x1306fe160af7d4faU, 0x12e5efe907fbfd04U, 0xffdaf417fd0014ccU,
  0xfb0ecfe605f319feU, 0x17001f0beef9ad0cU, 0x8f9f4df10ffdd16U, 0xfef30cfbf71217c9U,
  0xe715e7d10ffb17ddU, 0x26f1fd0df3d59302U, 0x26dfffde0706f2fdU, 0x13efef000315fdc2U,
  0xe706e5d30ef407ecU, 0x6ec07fd0ef2bceeU, 0x10fa0ae40617fe13U, 0x1bfdfbff201404baU,
  0xf101d8c40df328ebU, 0x1cfd1bf105e48df5U, 0x18d913e8061ad500U, 0x19f4ef071b0308c3U,
  0xec08d2e6f8ff2debU, 0xf071cee0bfab0f1U, 0x29e9f7e11f06dc08U, 0x2fa100918ff05b4U,
  0xeefedfd600fc1bf6U, 0xef5fefe06d5a213U, 0x1fedf8e90612f213U, 0x9e70d0d1afb00cdU,
  0xec01eac7f2e20df1U, 0x28ec230f08d891f5U, 0x1cf511f12000e710U, 0xed8111dfff002acU,
  0x310d6d1fcff12f3U, 0x29f811f00de481ffU, 0x6e20be00dfeef04U, 0x17dcee08050e14c2U,
  0xdf1bcfbd02e91eedU, 0x1af91ff4f3d5bdfaU, 0x2ce7ede12315f706U, 0x12dafafcf2f91da5U,
  0xee1dc1c5ffed2ef3U, 0x18eb1c08fbdfb60fU, 0x11e10ce80c03f6feU, 0xfee50b09f6f412bbU,
  0xeafbbbaefbdf1afdU, 0xce51510fbfd980aU, 0x19e1fbe0150ef424U, 0xfbf4070b031423b4U,
  0xeafad8c918d511efU, 0x23f907f7f5d483f4U, 0x29f30ad5161b01fdU, 0x18d30d0dfaf103a9U,
  0xe9f8dbbe0cf123fcU, 0x18f30803fff0be13U, 0x27e0f2d80e170224U, 0x11f302fff1081bb0U,
  0xf5fccec318ea0e00U, 0x1b05110210e0b5f7U, 0xcd7faea1d02fb10U, 0xfeff216faf71ebbU,
  0xfcfedccd19f01e01U, 0x14f508fcf7f1a5f2U, 0x29f9fde10efbe118U, 0xf8c705f911f120bdU,
  0xf7ffc2ed10dd13fdU, 0x1efe140b05e88e10U, 0x29fb0a0d070eecfdU, 0xe9ee13020511d4U,
  0x40af7fb0de52df0U, 0x1af920fafbe49d1cU, 0x11e6e6f91c19d11aU, 0x8f10bf415050cd9U,
  0xe80dfee314fb0ce0U, 0xdf300f8ffee042aU, 0x14f1eaef17f6e022U, 0x18fbeff7201116e6U,
  0xf417eced13f33206U, 0x26f80f0607ecfa0eU, 0x16dfe902fb09cafcU, 0xfceaff091ced14f9U,
  0xe605f5f808f813f4U, 0x12e5ffeaeeea002bU, 0x2a010de61014e406U, 0x1be5fbfe0df903f5U,
  0xfb0aeadb04091fe8U, 0x15fd0b0a13000329U, 0x30e405ea0ff5da08U, 0x1bf40809010d1ddbU,
  0xeef9e7cc08f71f15U, 0x23e90aee11e9fe34U, 0x17f7f6f51015f922U, 0xfef0fe1800f602ceU,
  0xa0fcdbf1ce31709U, 0x33f412fe1ded0717U, 0x31f4faed0d211028U, 0x24eb0914fcfb1ca5U,
  0x221c1b40de414f6U, 0x1506111b19daa010U, 0xefef5d71c0b031dU, 0x1ef00f0a150312aaU,
  0xfe07c5de19e01000U, 0x2106060ef8e4950eU, 0x21dff4e41ef7ecfeU, 0x1aea041002f109c9U,
  0xf90ee3d306df26ecU, 0x1cff06f0ece1c9f2U, 0x21ebf6e11f11f004U, 0xf9d109f914fa17e9U,
  0xfa08e3e41bfb08f7U, 0x1de60afb16f5b10eU, 0x1ee20c050f1cf218U, 0xfae5f01808fb1fcbU,
  0xfd1efbd514e919eeU, 0x1cf2050c13f1e103U, 0x2af0f5e71b1beeffU, 0x16e7fc11100b22d6U,
  0xde06efc70afb18e8U, 0x2cf724f7fbee032bU, 0xdfbf4fa0d1dfd22U, 0x9cf101ffc130ed4U,
  0xf60dd3cb14080f0bU, 0xef422f2f5dcfd2eU, 0x20e516fe0d03fb28U, 0xaf1190402ef24c1U,
  0xea1fdfc904e417faU, 0xefa181907f1c5f8U, 0x13fe13e71718e403U, 0x6e50c0313070db9U,
  0xfd06d2cd0df800f8U, 0x6f714fd14dbcf0cU, 0x1de7f9f9171c081cU, 0x17f10b07f5f909c2U,
  0x124d7de050220dfU, 0x140900f318ebdde9U, 0x26ec13f10e11ff10U, 0xcd417fc00121cbbU,
  0xed0bd9dd14f622f1U, 0x24f80206f2d9d6f8U, 0x1fd7fadb1808f125U, 0xcf1061dee1100d6U,
  0xfa18f3c818ea21ebU, 0x26e7240711eccdeaU, 0x25db05d61313ed1eU, 0xfff70f14fa0f1bd3U,
  0xf512d4ba1f0006ddU, 0x29ff1cf5fee4ddeaU, 0x6f216f10afc0b17U, 0xfeec06191007ffbfU,
  0xf00ae8cb21e318dcU, 0xde821140de1e1eeU, 0xfe00de322feef16U, 0xfee21b160c050adaU,
  0xf811d3e109f7fcdbU, 0x12eb010cf5d9c3ecU, 0x25e3f6ea1e140609U, 0x1fb0120f70c07d3U,
  0xea1cdced0adc15e1U, 0x24f423f9f9f3e806U, 0x2eea15e01d1ef517U, 0x22e20504f90e06cbU,
  0xfc09f3e6190100fdU, 0x28f32700f8faec3bU, 0x14f305d61f1e1029U, 0x6e0060ce3fb0c9dU,
  0xfd18aebe0ff9f503U, 0x340e081c08dce021U, 0x13e5fde525031a10U, 0x10f1190cf1fc12afU,
  0xf214bab41ae400f0U, 0x320a1d15faf59df9U, 0x1af90adf2a081006U, 0xee025080e0f11bcU,
  0x519c7d806f5f9feU, 0xefd1ffffee2b0e1U, 0x14f7f20d02f9e70bU, 0xdd3f60908f71cb1U,
  0xf409fcf326d609e0U, 0x24fe0e10f6e993efU, 0x12fbfafafe03ff1dU, 0x8f2f6122a1513f8U,
  0xe60dff0e13ed2effU, 0x1ee40713f2fcdde4U, 0x16f6f4061f02010eU, 0xc00161e03fa0905U,
  0xdf09100c040425f5U, 0x4e728010d01ff01U, 0x2affffe5081dee22U, 0x2008feff0b101af1U,
  0xec11fbe61f033001U, 0x1500150002e40115U, 0xdfbf1e111fdf71fU, 0x4e00e100bfb1edeU,
  0xfd12e8c91ae80e0aU, 0x1ffe061706fed814U, 0x20e70b041ff80604U, 0xbee110c130affd4U,
  0xfc04f2e213e223efU, 0x2de6210d09dcea1bU, 0xceff9ec1212ff23U, 0x6ee060c03fc26f0U,
  0x906f30e16eb17f7U, 0xff3181d0beff3f2U, 0x2b0606ee210e0c24U, 0x9f9f906f41504f2U,
  0xf52aebee1705fb00U, 0x100729fefaf0fa03U, 0x22031b07170f1329U, 0x18fe02fdfb0413e9U,
  0xf70eedf406ee16fcU, 0x12021afafeecf60fU, 0x1cf8faf11112fd21U, 0x22fa0ffff6f020ebU,
  0xee1fe20420fc0cecU, 0x1efe25121dee06fcU, 0x9e107fc03160711U, 0x25f50314f30618eeU,
  0xf521dce1160b0602U, 0x271a1e1b0fddfcf1U, 0x1cf60e04141c192bU, 0x20ef100f020425e5U,
  0xff2ae9f408fe0ef1U, 0x2efd261102d9ff0dU, 0x2df505ec1f02fe19U, 0x2afd2410ff1521f6U,
  0xf315defe2cec14f7U, 0x21fd2bff0fe5e10aU, 0x46cdeff3390cce01U, 0x17b60634f1f22397U,
  0xfd2aabd8fac42dcdU, 0x42cc3fe424f10b20U, 0x39d5e5c43e1bd507U, 0xf8e7ec2a081238c7U,
  0xdcf8c5a313d61cd8U, 0x36db1b0024dded41U, 0x25f6ddce1b01be29U, 0x18e5e410101e0385U,
  0xcdfcd6c52ebc34ffU, 0x42d82ffc19d5f937U, 0x32c013fd14f3d108U, 0x6d1eb031b020fa9U,
  0xe812c7d709032aefU, 0x40ed250a15cce51fU, 0x39faf6c705f6e010U, 0x1df0f80efb05149fU,
  0xd51fdad72cf013feU, 0x22e32ee515ea0d3eU, 0x4dfbfac30b2cbd40U, 0x11d2e8f615f918abU,
  0xd3f4d5b70ae53804U, 0x16fe041811f5e643U, 0x2bfb09e11724b014U, 0xfbcd05242dee03c8U,
  0xe30bf2dff1cc2ccbU, 0x2ed407eee9e5ec30U, 0x4ccfd9d92c2ec63dU, 0xedc80f0b251f06b8U,
  0xbe25e4bfffff4502U, 0x28ba0611f3cef355U, 0x3c02f5032f20d12aU, 0xfb00e7f61bf51cc9U,
  0xdc0ec7c9f9d03a0bU, 0x2ee726180cd4e029U, 0x1fe601c7211bb628U, 0x1fcbe60ffafc0cd6U,
  0xd724d7c7050c42e5U, 0x3bc03403f1d6e149U, 0x38ee08df1601b516U, 0x7eeeb2601e3febfU,
  0xe415e5c40def12ebU, 0x22c82810ecc70f2aU, 0x42f406ef2716ad14U, 0x2201ff1817e926d1U,
  0xe72dcfcd0fd23fcaU, 0x12ea1a12f0e0052aU, 0x31fbf0d909fedd33U, 0x16d71b2f1dfb2eb1U,
  0xcb1de8ee0fde30d7U, 0xdf0251824d10140U, 0x4dd1fd06150ae718U, 0x11e1f220fdfb06cfU,
  0xe12ce2cf14f144cdU, 0x28c8411a1cde0742U, 0x2dcedb07f80eb3ffU, 0xfaf4e4f6fbf03ebcU,
  0xc510dadd10d32bcaU, 0x30c40c08ede1fa51U, 0x1acc0cc91013c80bU, 0xcde124211a09c5U,
  0xbf20e9efece022f5U, 0x49eb3525f6ddf835U, 0x1ce8ece81a15bc2dU, 0xede6ee00fee516b0U,
  0xc312f0f2eecb32eaU, 0x36d20115fef5ee4fU, 0x27c7f6df2104ce0dU, 0x26eb111a2f0e0cdfU,
  0xf12106c1f7ec30eeU, 0x27e50718fae61c46U, 0x2fe0dee934edb205U, 0x1fe8daf9261a13caU,
  0xf51f0fd9f7cd56e4U, 0x39ca1e1102c80350U, 0x4eedfee00826bcf9U, 0x12e9070c191616bdU,
  0xf42b0bd0180310eeU, 0x12c2301cebeb0b40U, 0x3ff9fccf2c2ce709U, 0xf7e2062d43e61db7U,
  0xbf22d6ebe9f042edU, 0x36df180016e6103fU, 0x15cc08dd1618b413U, 0x14d5e1191a1116d6U,
  0xed13d7bdebce2ceaU, 0x18da0df3f9d31963U, 0x2af0f705311bccfbU, 0xd8e9270b1517dfU,
  0xc5f2f3ea03093df1U, 0x28ee1efce9f01c38U, 0x14d310f51207d62dU, 0x23dc00fa05f407dbU,
  0xc908e7b908141b03U, 0x30cb0add14cc2738U, 0x35dafdf11cf9ed38U, 0xcd5f31c1bf03ec4U,
  0xff10e3ca01cb2ee2U, 0x45cf11e71dc42c37U, 0x16d204e91b23b42fU, 0x17e6e00b110e24bbU,
  0xf9fbd8dde2f318d1U, 0x33ca3d04e8cf0749U, 0x2fd8d5d725f9e012U, 0x17c11cf934fe21d4U,
  0xf926f1d0f0dc42dbU, 0x14bd1ae9de030a3fU, 0x2dd3e8e417eac008U, 0xeee2f4fc39f72ab5U,
  0xd128dcf51ec224fdU, 0x13f62af50fd33a39U, 0x13eaf0d4131ca337U, 0x29c2e102352c2ad2U,
  0xd8ec0de413d82bfdU, 0x17d0201f02d85042U, 0x41dde1f11310be1fU, 0xfffd14233f2701dfU,
  0xbc2c0bdc06d526d0U, 0x2db802f11ee72b49U, 0x33bfd8db3003ae17U, 0xead907ef451016b8U,
  0xbd0bdabe0ef42ddcU, 0x19c62af407f0072bU, 0x4a03f4f810f6b833U, 0xf5efeb0e0f171fcbU,
  0xccebf5ebf4f638eeU, 0x10e616e90c03e95cU, 0x1301f3cef804c1f8U, 0x1002131038142ae3U,
  0xd5f1f1f521d028e2U, 0x46e92ddd1dcd1b6dU, 0x46e90cf10c05da33U, 0x10c2091a230f2dadU,
  0xe106f0e519033508U, 0x2ec50af619def360U, 0x13e2def83006d0fdU, 0xbf3052c180706d7U,
  0xd0fdefc005ea37d3U, 0x18e2380621f7ee6eU, 0x42dbf9cc021dad2aU, 0x21f1e90743ec25bbU,
  0xbef9d5f8efc931faU, 0xcca031918e91318U, 0x4fce10ee3513de2dU, 0xdc1f2ee1a013dd0U,
  0xd61ee1ea0cfc5e04U, 0x37c93c0ae0cdf150U, 0x21cdffe42928d3f9U, 0x27f6fb0340e423f5U,
  0xbf26cddbf6ce4501U, 0x23cc1c0de6c8e457U, 0x3bcbf4cb30f4bc08U, 0xdd71607422229caU,
  0xc2f3f9e2edd861f4U, 0x27cf1ddb15ddff40U, 0x1bc809e904f2c514U, 0xeaf401280efe28c7U,
  0xbff5ecc8e4fc1ce0U, 0x2fd92c000ae3184fU, 0x48ed04f30d13b8f8U, 0xeee2f216380015bcU,
  0xbd2ae8dc1acb3acfU, 0x3df0becfdd4ff45U, 0x31f9f8ebfe15d60eU, 0xe4f3e21541163ecdU,
  0xcb22dce6e2e925edU, 0x16e72516f9f4d96dU, 0x40fee7c51428df1fU, 0x210508210ce103beU,
  0xd0f4e2f116c64bd9U, 0x20f03413f6caff60U, 0x43c1dee43304a603U, 0xf4f5122c2f1627c5U,
  0xde10f3e017ee5ffbU, 0x2ad942011cd71560U, 0x4be2e3fd2e26c12bU, 0xe8bbd62812f739c6U,
  0xd4f4f0c613f04ad1U, 0x36b832de05d80644U, 0x3bdadcd81ffcce16U, 0xf8e7e6f217f03eb9U,
  0xde11ffcd25f146dcU, 0x36cd1ae407c4da58U, 0x24f511dd2307d62fU, 0xf7e2ea17ea1c0bdcU,
  0xc31fc9e9070a2cfdU, 0x3dd100130ce8111eU, 0x19dcfbfa1cfed323U, 0x29c7fbf9190120c2U,
  0xc51bbad007fd4aeaU, 0x2cf23bed21e9d754U, 0x2fdafcd7362bad23U, 0x6bef328fe1a1ad2U,
  0xd11fd0c910f310ecU, 0x1fbb0de6f8c0f649U, 0x22d4f2d502f5dd03U, 0xf8cffd15f3252cb1U,
  0xd3f4f4f20bd60cfdU, 0x43f2260101f40c56U, 0x36bc00bb10f6d81dU, 0xf8c51c0ff2ff2fc1U,
  0xc516cfe22ae80cf0U, 0x26fa0af413cc1679U, 0x2ce5e1d70e07b8ffU, 0x1cf8081a13f91dbcU,
  0xf720c2e523f521cbU, 0x4ecc3f19e6d10d4bU, 0x18fb1a012b04af29U, 0xf9f2f70d0df11cd0U,
  0xd808cae30bc63bdaU, 0x18f4430106ea0f48U, 0x51c80ed72d1eab0cU, 0x9e21e180efd15a7U,
  0x29fcc503ff46edU, 0x1bfb4212e0c10332U, 0x4cc2f5f73829c836U, 0xf6d80a320aeb26c8U,
  0xc830e7e02feb53dcU, 0x3ad03c20f4d61d43U, 0x47e7f7ea070ece0fU, 0xccc1908121801afU,
  0xebffd5f00d0733d8U, 0x18e90d1f0ee3223cU, 0x19fb0fe4002be01cU, 0x18f6f810031040a1U,
  0xe11fe2e605ff1900U, 0x44c9351f20c9e549U, 0x39f807d80beed421U, 0x28e4dc03e6f91ea7U,
  0xcef9b7b407e72807U, 0x3afd2d051aee3169U, 0x45f21900322fe215U, 0x3cf192d06e522b9U,
  0xdf0bc9e600f617efU, 0x32d0151000ef2a46U, 0x2401ecca0011cf15U, 0xecf4f01306f140beU,
  0xc9f4fddefacd2b01U, 0x1bd4370c18cb1268U, 0x1b0004dd1f2bd502U, 0x2cec1a2e13010fc1U,
  0xf129d9ce1ccd12ecU, 0x26cf2cf61ff3235bU, 0x37cd04fd252eb51cU, 0x8ea1304f71b14b9U,
  0xf80bd2def3cd0ffdU, 0x31c640f31fd7504cU, 0x4df3edf804ecc326U, 0x27d901263f0f3dbbU,
  0xc5f2f4c404eb30cbU, 0x2efd19e716f45f46U, 0x30cc11eb3c21cb3aU, 0xfccdde19320023d1U,
  0xc5f4d2d600e319f5U, 0x1bf2161c01e50156U, 0x46d014071bfcba2eU, 0xfafede1d3a092cd2U,
  0xef31fde804fb15dbU, 0x16ba39df03eb4037U, 0x50d1e2ea0e17b122U, 0x7c3071624e414d6U,
  0xe420ceba25e05b01U, 0x11d11ee716fb1f52U, 0x43deefd822fab31bU, 0x22d3dff01c163bc1U,
  0xc3f8dcea0c0342fbU, 0x34d1121a1be10f3cU, 0xdec00ea2ffedc36U, 0x1dc702fd1cfc2cc5U,
  0xd2f7d6c111e746e1U, 0x29c222f10bc51663U, 0x45edf6ee2306e82dU, 0x1ed30e09141418b2U,
  0xe324cfc3250753f3U, 0x2bd1280112c92447U, 0x1ff20fc73b10d712U, 0x2cd61c1df7f810c3U,
  0xd60ac3c8fae848daU, 0x4cf3241b00cc135bU, 0x50c405e32703b00cU, 0x2df1f9130bfe0cbbU,
  0xd306fcde06cf3deeU, 0x1fe53c0be6dd1f5aU, 0x4adcd8fa3bfbc810U, 0x15f0fd0afbea2fb2U,
  0xe216cbbef4f33fe3U, 0x4ec63912e8f40c46U, 0x13f1f2f12509b82fU, 0xf7ff0b29ff12028bU,
  0xd609d5e010e53305U, 0x4df51c12f4e9e943U, 0x2206edd32107e51cU, 0x17fb1006f800188fU,
  0xddfbc6cbf5fc0605U, 0x3be41e0f17c7e83dU, 0x1dc9ffc33003e60eU, 0x2300f91a241613c4U,
  0xfe0400c80dfd16e7U, 0x35d42c0118f40b54U, 0x3dea03d21908d539U, 0xf6d6de25f0f71ea7U,
  0xfa0ed6dc06df07ddU, 0x47e221171fc7ea38U, 0x2fddeff21801da04U, 0xf7cd0931330223c1U,
  0xd71cc3f20b093beeU, 0x25f33ff6efebe61eU, 0x48c2f6be20f7bb12U, 0x7cb070b23e139e4U,
  0xc51ed8d4f1e018e8U, 0x1cda211218e8f553U, 0x49d9e20215fac902U, 0x23e31f0424093dbdU,
  0xd917ebd719ec2ae2U, 0x26ed1fddf9c4ce56U, 0x45fedede1618f508U, 0x8e2e93213021ebdU,
  0xe503c4dced0540d4U, 0x4cdc3620ecf0d27fU, 0x39ecf4fa1510d814U, 0xf0e2f42a25200bc7U,
  0xfa03eadd050738ffU, 0x34001e1222e0f434U, 0x3dca04db10f1b83dU, 0xfe06fefe09162fcaU,
  0xe034d4e9f5ee39dcU, 0x48ed371611d8244bU, 0x3ae2f3dd0205f13bU, 0xd419f5161e0bafU,
  0xf6effcffe93eedU, 0x44d941f2eff9f70cU, 0x41c7fbfb15f0b607U, 0xf905ef0efbff1abdU,
  0xcf1bdef1190524fcU, 0x56e6090df8bf0314U, 0x22ee0bea3108ed26U, 0x10fce602ee0d0ec6U,
  0xfb23e1e82cef28e4U, 0x29c2271200c7283dU, 0x32cfeedb2c1ad10cU, 0x16f7fb090bec08aaU,
  0x206f4bd29de11f5U, 0x20ed1ff5ecd9192fU, 0x4adc1af2080bb70bU, 0xf5c1ef2501fc3dd2U,
  0xf006e7b1f0fc2bd5U, 0x16ff181301f02516U, 0x83f9dca8e096685bU, 0x2681cb0b53b52e9aU,
  0xd1c30bbfabcf5ff7U, 0x8758aa29e129fb00U, 0x9d64e70b949d06b2U, 0xecd5034e6f0e34b7U,
  0x4e88e05130889b02U, 0xe3465ab551d9fa31U, 0x6249f039b5d7f100U, 0xf40d319fc3f69c01U,
  0xa93c5d3a57b0e390U, 0xf6ea399d24a5ea6cU, 0xe21b4550df9e2307U, 0xca529799a79e0ab9U,
  0xa252d3e2a7d6c7d4U, 0xb22fb833d4039a32U, 0xa7c0ec055fbb9c57U, 0x601bc6dfb4b302c3U,
  0xe1b2e969ecc19cb1U, 0xbe24c451bddd0fe3U, 0x85eddbb7a64cb7dbU, 0xf64393230920a524U,
  0xfe07085fe45106cfU, 0x9e2200ceaae5cd0U, 0xc6d55867c9fa2319U, 0x98c3f1dac1d30837U,
  0x855b9cda445ad200U, 0x504ea12d31bb1b05U, 0x623b0f35d7ea1f23U, 0x52f3f84d242db9a5U,
  0xb4392ff6c2fcd350U, 0x1cc0e82cb1a1c2a0U, 0x5c5207b04550e608U, 0xf5983659eaf5a86aU,
  0xb817c5884d0b4333U, 0xed2fbe9208672c9bU, 0x581e31d1b65411a8U, 0xc199479cbd9dc91dU,
  0xcf15434314da16adU, 0x1dc2b82b3226ff35U, 0xbc93c36df7012f35U, 0x59cf5955bbf1efc2U,
  0xe7b30aed1ac6fd4dU, 0x4d3d27f8ce84aca3U, 0x9f51f3c0d78ede50U, 0x39c0c5591eda0f56U,
  0x1d5d2d1ba45cbeb0U, 0x2c89ad61adfc1aa9U, 0xea888b21cc3b4340U, 0x9383d18a0ef9f742U,
  0x9a06c25f0fbd38U, 0x9bad9ca058fee2e9U, 0xdf02fc41a5568a59U, 0xfb2957d1f2bdc81dU,
  0xf6ce3ca4508423edU, 0x27c61e14c88e5583U, 0xef3ee7f4f0d425f1U, 0x295d8ae85fbabd6bU,
  0xc22d1efa42a92461U, 0x8448454ebfb12beU, 0x1cc833d53be80508U, 0x25de52db65ae5744U,
  0x52b25e9856a63edeU, 0xde1a9699ff2d641aU, 0x1bc4ed62f6adcde0U, 0x49812cfa6d8ef51bU,
  0x93270b9cb7244be2U, 0x239f975809b2d305U, 0x4bdb43b22b449830U, 0x34e6f0985da6c22cU,
  0x62e5b49a1e6152ceU, 0x191b097035ef629U, 0xa3c7a48a9df4bf23U, 0x64f0903a3c91724U,
  0xfe47f031dbe35a95U, 0x14273fa361319ff5U, 0xd56438029ce85b21U, 0xa3d083a91cb424ebU,
  0xcc5c9a048c3f0212U, 0x2ad2ebd5d7454f63U, 0x6b5fc6cf44fc60baU, 0xa59093e3579ba161U,
  0x14400f6f92c90013U, 0x6b8ad83a0f2d5e6bU, 0xd6ebb60925b3cde1U, 0xf58fa8270a88e995U,
  0xc69657165a3c31baU, 0x5546e2ad87302800U, 0xd754066fb523bf50U, 0xc2ff9d26adec82bcU,
  0xd54da86fc4c3a62cU, 0x4dbde3c08b3464e5U, 0xa793a58220ea5351U, 0x3339ff55f7ffefc6U,
  0x2d035d0f6f894e6U, 0x91c1573459cd62b9U, 0xaf881735840d5b35U, 0x59e7539a0d981a4bU,
  0xe5839fa75b5e22e7U, 0x709e9f0a9b1a9b3aU, 0xd356252d9ae4fee8U, 0xd0a0e2024e0d06aU,
  0xd93f2b94bf92451eU, 0xc11e1e605eebf627U, 0xfb05d0509fd7c0a3U, 0xb3271254c01160f4U,
  0xc087fbdb8b94b082U, 0xb24c1f3704d65fdeU, 0x9518a0ff964c1d88U, 0xf58d1e85abf6f13aU,
  0x42f7b3264df2d3ddU, 0xbf18904ad4cc2d00U, 0x859b03ed4a12d917U, 0xf34037b14f0a35f3U,
  0x41b8b6c2611a95c6U, 0xa3208ca607c56dbcU, 0xace3eb1015869110U, 0xc8282bf19abf1140U,
  0x20f6ad6515c2f33aU, 0xf32c9899fdf1e319U, 0x3a5c0885921986f1U, 0x47b88fb7374e473fU,
  0xa41f658782f16864U, 0x22f2a62fc0acf93fU, 0xdbd02924023a5f32U, 0x9c2da99e3ccd1457U,
  0x3cc9d2e6bba1b21bU, 0x94a0b33558353388U, 0x1bb3ab5eb55e2fe9U, 0xb5e243299b5e0535U,
  0x836ef315484eb3cU, 0x3bae4b8dbcbcd1dbU, 0x86feaa4949d70e49U, 0xb93cbabd9b434b3bU,
  0xa42baac5fdee3be4U, 0xa1f293b0e6b5da0bU, 0x3dd20dfaa41b1b2U, 0xf86139bf409881b6U,
  0xf4929de0f7005760U, 0x4824f2150da3a4e4U, 0xe10c85522251ed82U, 0x85f589f2549e2a54U,
  0x9c34e76d43b4bce8U, 0x3acf36f027f340daU, 0xe08a3b02b03f4108U, 0x27caeaa0101b144cU,
  0x53a4f7590e87074dU, 0x12123519e752ddabU, 0xf014ba3d10bbda84U, 0xb03421d1b3c7389cU,
  0x970af00ec3efadeaU, 0x620b83ba83ef93feU, 0x770e547e2abce5eU, 0x9bb55b8d30a79acfU,
  0xf4b1b4bebf4afeaU, 0x24849ccd96e9db3fU, 0xdf05bf47939ef354U, 0xe9b9e75936ae46e5U,
  0x52aba393aa2bf8ceU, 0x19f4891f2dc4c11aU, 0xd7be13f414bfb6f2U, 0x965cccedc12c0a67U,
  0xc8f1bcccaf1ec788U, 0x9d4d215a9b2c1fecU, 0xa497e04917aace47U, 0x919829870d902222U,
  0x22c6b89e3aff2ad6U, 0xd4b6486024ed224bU, 0x33103dd8e1f28989U, 0x8ff715c6b5854364U,
  0xf61a0c2251f8e331U, 0xc2515fac0a1aff2fU, 0x60fb4c41d31c12d3U, 0x4a48a09f5705efc4U,
  0x3ad9ea20d11ac653U, 0xa4a5233da354b4eU, 0x439efe00436c051U, 0xdf10519439e700f7U,
  0x47172b0bd52095cfU, 0xcf36e53b4dd7f0eaU, 0xd296bff9543f3f18U, 0x1bf0913b9c62d0ebU,
  0x4e585ac3e400a8e7U, 0x8c92329e8f5047baU, 0xebbd27aaeca4af42U, 0xf7d84a00febccb99U,
  0x52a2a6a53f88a1f8U, 0xb858c2adfffa95cbU, 0xa62d342b959bc347U, 0x4b8fd6572a4c11c0U,
  0xb2cfadd3cd45e112U, 0x914e12dcf79b94eaU, 0x5ce13514d5fce233U, 0x8ccfc6c306dc3ffaU,
  0x1d95e25bddde6691U, 0x614c2d949b19a563U, 0x39bed738e401343dU, 0x500eca933a29116cU,
  0xd9e7c0d6551b93d0U, 0xb59daa6194a3ec51U, 0xdf9cae4b07535143U, 0xc8d0c2c24484a156U,
  0xbe9764f8d258233cU, 0xcd202442faf845d3U, 0x298b4e8ee6080fa6U, 0xaf1aa45b0bfc1bd3U,
  0x4e9f560341b2bbb0U, 0x9223d959bc35261U, 0x8f4526870fd70559U, 0xa3ea2b5968509331U,
  0x90149b2d5efbb021U, 0x1f454f154f18c828U, 0xf8cbfa00bb8b5f83U, 0xb581b29e241dae9eU,
  0x25b06d8fc271f5bU, 0xd12de8f7c4e9f6a7U, 0x8aec170e24974feaU, 0x320422a007e522e3U,
  0x4d3b56231c5fb433U, 0x5aa329ad6145176bU, 0xfddad6d2264feea3U, 0xf6415c9153ae5210U,
  0xdfb01cbf3d49aa8bU, 0xae533906db54c925U, 0x2902442d5c04cb30U, 0xd19bd75f0bd52fe0U,
  0xd0ff19a4e31bcfc2U, 0x43c6369c2f8bdfc1U, 0xbf21574a8524d35fU, 0xc5bab8f5ded3170cU,
  0x8732900beb535fb0U, 0x58d0decce14e48ecU, 0x45e6205c88d4cefU, 0xf222cf303041d5dcU,
  0x376121422a031342U, 0xaf182cb48a6fe662U, 0xf24db3a1389320afU, 0x8198cdbb3e2e2839U,
  0xe4bb27518d255146U, 0xfa37cb5cdc254c91U, 0xcd47431221d2f595U, 0x96d97f75020c1a5U,
  0x5f8e01ec5051c1f4U, 0xb89201d2cbc8ab96U, 0x34bde7ced4b8f317U, 0x5e594e5048225ca6U,
  0x57e3b38ebb4a3e1bU, 0x64c3af4a95023ac3U, 0x85531e41bd3c1d16U, 0x2044321104ccfd31U,
  0xe95314d7e6dcb25dU, 0xb8323a04514321e0U, 0x29ad3716f2bd4e4eU, 0x87faf1f1c0d8e044U,
  0xc3c54fa5a8553cd0U, 0xe0b449c791fb012dU, 0x94feeb3e3b9184d1U, 0xaa5b562ee18cfd56U,
  0x24995c4248ca0d95U, 0xe8a0340dc0b511fcU, 0xbde2276baceab290U, 0x122d8bbeae3ea4fdU,
  0xf6bb63af85f1041aU, 0x9087212bab2f3c56U, 0x3a49d56106c53155U, 0x97bd4dec5085ec0bU,
  0xcf8a6904525e2026U, 0x8bb8c4c6eefbebdeU, 0x2b862221b43b84aeU, 0x3a91a72d251b27c2U,
  0xc2d3caac025814bbU, 0x4fd7f28c31042f15U, 0x233b8f4723fc1cf6U, 0xd208eee2a717c63fU,
  0xb18d3cb419c433e6U, 0xd39be006560a1cb2U, 0xfc64eb3fbd9baa9U, 0x3be3930c508dbf6fU,
  0xdc22e7589602b147U, 0x9a4486283608b2c6U, 0x9350623689b3f02cU, 0x1092408c350a8666U,
  0x2a8b23d8b9203e62U, 0x2543a501f1bbcefeU, 0x34273890fdab0f55U, 0x1160225128c352d1U,
  0xf42c1fe188fc181eU, 0xe1f0b53cf261903fU, 0x9d16c3d139839540U, 0x329514fd63bad01fU,
  0xc0a82c90288a1cffU, 0x9eacbf293d39169dU, 0xf46a96a54ee155e6U, 0xabed846015cf0509U,
  0x26c81c48445df347U, 0x11cc8f9cefab0529U, 0xd90f21ea2d83291aU, 0x18dadd01c99692a7U,
  0x16413358d73fa88dU, 0x632fbaae4b1da7cbU, 0x30f420edd48aedfcU, 0xa06e8d80a14321aU,
  0xfc02d12b5440204bU, 0xb898d14424f4d10eU, 0x33c8fe18af68ae5U, 0x98122535cb9914b6U,
  0x4d972c938d0bfd86U, 0xf3dfca008313ef0eU, 0xf7e7cce1a79ab6abU, 0x97a8f698bbe9b323U,
  0x17bafd30b2b264e2U, 0x375e519ffd6cd145U, 0xb6e4e1e3da0d608eU, 0xa32afe0cd13807c6U,
  0xaf8410ac1e59e0dcU, 0x845716564a90a4e4U, 0xb305e8b88ec6aaf0U, 0x84efd9e64f519b25U,
  0x29c9a9420684fcd8U, 0x70a4da130a41d5f5U, 0x5a2754c02ed95489U, 0xe92f849425c1d457U,
  0xc510423422cee3bfU, 0xa9b021c5bcd89707U, 0xff2f8da7bd872ae4U, 0xa949dce1634c8a26U,
  0x961345c010e94a29U, 0x8b5be01af1c9c8ceU, 0x90ca1510dd1fc734U, 0xa0d5a242552c2fafU,
  0xbf610bec438bd249U, 0xf35b92b389213ca9U, 0xc5ff2a1005179a31U, 0xea182388eed5bbe9U,
  0x24fd2ed01ca12a9bU, 0xde2945223654dcaU, 0xdcded1ce95bf9297U, 0x3230ed5e0f9bff47U,
  0x4f95220a1a50aea4U, 0xd783cec8c6e1234fU, 0xf8bc95aea89a48e4U, 0xe4b089dc2095193fU,
  0xb2606a3add1fbfadU, 0x28da5dd6f5b7d64fU, 0x18b7d4fc0f58ec0bU, 0x4eeb4699ecb0073dU,
  0x3a01208dad479c00U, 0x99412516cb29aaa6U, 0xb938ee4de0e846edU, 0xeb4710e70612036aU,
  0x50e85049fa2125ffU, 0x152d1f6355531ffU, 0xb5501a4fd71d3cebU, 0xc2dfc20f9e60f7bU,
  0x29d954600c123613U, 0xe525bf1c32436af9U, 0xd7083d31ca1b55f1U, 0x1f2d1ffff8fd123fU,
  0x3519343df831130cU, 0x164eede92a2857fdU, 0xf415fd330cda20e4U, 0xe4073c1a24f40d3aU,
  0x3c0b5b53eb0a0119U, 0x1840dd1729553c12U, 0xd73e051a160e38f3U, 0x13380ce91631d555U,
  0x6223129ee4b1816U, 0x14910ebfc5228e6U, 0xf731253deaf52e0aU, 0xe50e14faf4ebe951U,
  0x10021636331afb37U, 0xc705e8f2000b68d9U, 0xd7232327d1e7201bU, 0xe04527dc0a050272U,
  0x2ad65152e11f0b3aU, 0x905fa38ec1931deU, 0xb7053427fae64814U, 0x270301131a27cd6bU,
  0x54da4c33072efa32U, 0xec4cf6eae03f4a0dU, 0xf53228f613d71c0dU, 0x103d290919ea0f62U,
  0x18e21a0f14063432U, 0xc0ee9ede5211f0bU, 0xfa372a37ccf80c02U, 0xf61a10d5e6330e29U,
  0x131f4941ff06142aU, 0xb30d430083445daU, 0xcf11ff4304f217d3U, 0xe1fa27eafa08eb60U,
  0x4e1b340d021e0e29U, 0xed1903fd18014b0dU, 0xb81c041cd90b18d7U, 0x2837231cee33da26U,
  0x7d134183025f611U, 0x8430cfe042c2918U, 0xf94d2848cf1b5ce5U, 0x1f1934e8fc13ec67U,
  0x2adf353f1733e824U, 0x12ffe126301311e7U, 0xdb2b2530ff1c1118U, 0x1cfe20fd3033df23U,
  0x4a203c1427163046U, 0xca260d0ff214f011U, 0xcc35274e16fb0ccfU, 0x72238f31aed0d2dU,
  0x3dec0517092a2938U, 0xf840e7f8233340d7U, 0xd02f1510e2f21be2U, 0x12242a1a2405c953U,
  0x1cf902492038084eU, 0xc13141f3d492916U, 0xb2473f59da1d22f8U, 0xf0337f6220ee023U,
  0x4201fe4ef84307f9U, 0x62c031cf4211fd4U, 0x30d3641df024bedU, 0xe6300e142a26d163U,
  0x4526120c041cec01U, 0xc137cc033718ed0aU, 0xda191446c8f93deeU, 0xdc03220134e6f165U,
  0x351a0f070c4e0348U, 0x844fb1b1107e9bdU, 0xba2a3c2c0d185ae4U, 0xea35f2e70ceac623U,
  0x5319fc0d28071800U, 0xff3a06271a55fed5U, 0x1bfc2900e9360cU, 0xf822fe0f271ae619U,
  0x2006170f2d100c0bU, 0xe13e331244e3df7U, 0xd245113fef014714U, 0xf9280a26e5f8f706U,
  0x49d9444b16080cf9U, 0xdd01c60d00380206U, 0xfa343b2f0e0e4703U, 0x273e191217f2c839U,
  0x31010a33e0021629U, 0xe40ef3f31a5215e1U, 0xd8152425132a1409U, 0xdd300f0909ff0322U,
  0x3616082a27201a21U, 0xd30cd10de8220dd5U, 0xd103184b10ee47e7U, 0x21300cee2508fd1bU,
  0x4f51208e11f2328U, 0xd43303101f3214cfU, 0xf524ff1bcceb1ccaU, 0x274233f0f222d22eU,
  0x20f2004b1734df27U, 0xe18eff3051c03d4U, 0xfd11122107244919U, 0x1421192b20f9ff3dU,
  0xbe048271f51e60dU, 0xe027e7f00621171aU, 0xe2191d04d6f446dbU, 0x27413ce8e22bd029U,
  0x2313fe2c0939210aU, 0xd94ef003102c13b4U, 0xb71ef417f0032ad2U, 0x1c1708170d06f33fU,
  0x52ff1b2b004afd31U, 0xd057f8f4f3324021U, 0xf74cff26f3017812U, 0x2f42242e020cdc52U,
  0x1210103e1936e12aU, 0xd945c303283c2fcfU, 0x225fc51e31a6919U, 0xe7191bdb2717153eU,
  0x2a03514307071548U, 0xf924e2303d3a1be6U, 0xbc1932431930490cU, 0x229022f18e70642U,
  0x42ed3a1d031c1f3fU, 0xf25c173c381a3c1bU, 0xd2071b31ef1860cdU, 0xd4127281bf6c741U,
  0x311d0250401bf638U, 0xd929e12e240a0c0aU, 0xb4540216ed252ff6U, 0x1d211610e0eacd3fU,
  0x4cdc5135ed2e0c07U, 0xfe42ebef21302ee8U, 0x143b07031e62f8U, 0x23191d20e72fe530U,
  0x552430232318ec49U, 0xca5dd11a052537ebU, 0xbd2e171ed42e4e08U, 0x20573e301414e31cU,
  0x3be20d17fd321548U, 0xf23d10f1284f34d9U, 0xcb303805180475d8U, 0x1a15000bf730d920U,
  0x2ce72018fe460a4dU, 0xde39e0f60c2430f9U, 0xd4491144db257f20U, 0xf1391ce4182dfc4eU,
  0x43f92b170241d228U, 0xe5380e420023130fU, 0xcb0c373fe1fc78ddU, 0x2b23f513f50ce521U,
  0x60e3301520050e26U, 0xd634033bf8512ae8U, 0xd5303b4af00f2a17U, 0x262830e106f6ec6bU,
  0x3224223d3347f130U, 0x151c0f07153724ccU, 0xe4404815e6f43005U, 0x363d181e12321b77U,
  0x57061a44300c0a2cU, 0xec36ed26103f1fdaU, 0xb7051e1c1c1a7ddbU, 0x958440c2e12d024U,
  0x11df494a3c2c0830U, 0xf75d07442d1001bdU, 0xf753443719046a0eU, 0xa421d24f3e5ce58U,
  0xa21343c254d0447U, 0xf82fef03013c18dcU, 0xff290652e8ff2de5U, 0x2030ff250bffcc50U,
  0x232c334c12100f3dU, 0xf623c52901444de9U, 0xd01f143ee40e3cf6U, 0xea380e30eae7ed7cU,
  0x47f31c7c213eec42U, 0x1854cdf9f63f0d12U, 0xcd24051acefd4a07U, 0x1a423a071115d872U,
  0x2de83f6101450b1dU, 0xcc48dd0d222409c8U, 0x42f023403de5400U, 0xf53b09df3f26075dU,
  0x2cfd6b59144e1146U, 0x1d410d2c20594314U, 0xb644055ad21b500bU, 0xfc4c29071becfc6aU,
  0x52e85f63fc191201U, 0xf10e62a003d20d2U, 0xb0303a4700083df3U, 0x1f68f6fa4217d55dU,
  0x2d255167171de625U, 0xf10bc11c2f2551b1U, 0xc247fa19d20764dbU, 0xf76136292706e168U,
  0x49e64f731d402052U, 0xdb18d53b09262c06U, 0xdc4bf455f50e79ecU, 0xdf382a2a0028dd76U,
  0x1ad55b611336110aU, 0x70edbfc000d32eeU, 0xe20f132fe91e42f5U, 0xee2afdee1ee8112aU,
  0x49d66742fc232a4bU, 0xe8300933292b32d3U, 0xe02f2e30e40b3bdfU, 0xa54271422fe1437U,
  0x2dd34f4f29371b0cU, 0x1a5cd52e25272ba9U, 0xc4110545fa1e2bf3U, 0x356e3616ef12e866U,
  0x21ef3a622d462307U, 0xc94ed13324441ef5U, 0xf8422747cfe76a13U, 0xff4315e338ea1238U,
  0x14075a2527341005U, 0xcd48ee25051839f8U, 0xd85b1c1edb2c4cecU, 0x542350a0a300372U,
  0x48f32142310f1d11U, 0xf917f10b3a17e50cU, 0xcc4b3e5aefe873d9U, 0xf550140238220248U,
  0x2520263de750da1cU, 0x1346d13f354d1320U, 0xb836050cd31034fbU, 0x2b40050ff70dee32U,
  0x1e0c3643f232e24eU, 0xd527d6180c09f61aU, 0xc41900250c1e4bd5U, 0x23f630d7fcfbcd56U,
  0x27f2072a080b3332U, 0xe55d0f321a18ff01U, 0xdb4a0f45fa2864eeU, 0xe2353bea01ff013aU,
  0x4b084f2f11352ff6U, 0x81fc9e9e82df199U, 0xcc25fd15f12061e5U, 0xf3483d1d3600cd36U,
  0x3e131963e53c143fU, 0xbf47ec291c5209a4U, 0xbb46f00a16e05addU, 0xee2418203c180d62U,
  0x33234238280bf71dU, 0xd410ecee032c2e0aU, 0xd91338f8f51754ddU, 0xe0463b26f236ec5aU,
  0x46e3334ff81a054eU, 0xd44ae729012b2d17U, 0xce072c42fbe922dbU, 0xa38f5ecdb230131U,
  0x2d061e2b2f29e133U, 0xeb5c1416e90d420dU, 0xd515193801dc62dfU, 0xf841422931340661U,
  0x14093826f4fee90dU, 0xb24f0eef606170aU, 0xca12f80df0f259fcU, 0xed23201bda15023aU,
  0x5610f5082a1edd32U, 0x515c513101013dfU, 0xdc031e48dbee3dd8U, 0x1d1ff8f1f723d114U,
  0x2cf4293615240e11U, 0xea5517f9124c0116U, 0xdc4e19391cf246f4U, 0x2c394106ea1ed55aU,
  0x1c1d1f4423410c01U, 0xd110edf5270be313U, 0xcc42250ee9da6b15U, 0xf24802f712e00740U,
  0x53fe3f4e011b19f9U, 0xfd15faf122510113U, 0xd63a0337e7175b10U, 0xfe1702161b311555U,
  0x20f0f93f1cffdcfbU, 0xcf47e2271d30f2eeU, 0xd417300f13f3430dU, 0xf60d05e62aed0645U,
  0x3929fb09f3291504U, 0xeb0ee514e6370db8U, 0xd1112436f5fc2107U, 0x282411dc22e5ea59U,
  0x50e5572410fb200aU, 0xc0bfb362337e3f0U, 0xe1141b1803206703U, 0xc322912280fdd27U,
  0xce71e3603530821U, 0x1328d2fcf61906fdU, 0xd33d2e01caea1704U, 0x949312122ef1461U,
  0x45d62045e82de626U, 0xde1d073be71814fdU, 0xf42c3745df0934e9U, 0xeb423522e221e33eU,
  0x2910fc46f727f803U, 0x125fbe90c15dcccU, 0xc927ff0c150c5df5U, 0xea37361afbf4f13eU,
  0x4f0c0239e81401fcU, 0xf332f0e326422815U, 0xe8fb1b49efe45606U, 0xf8353a1c25270c1dU,
  0x36002c23e610df05U, 0xd713ee021f03f8fbU, 0x30e2b28d11058f4U, 0x264a2523eb1fe9edU,
  0x2e2102f5e0f01532U, 0xd03ee61b0338e0f3U, 0xbf15254ce7ee3ef2U, 0x1624fe18ecf5033dU,
  0x1df70232e13cf72fU, 0xd157c933ff4ce30cU, 0xe9fc2a0300194b07U, 0x152200d7fa2af72cU,
  0xc0645220435033dU, 0xfb38eb30324e02faU, 0xcf3ffc28dde371f4U, 0x1e273d29fc24d243U,
  0x44ec0f39f735151cU, 0xe11ede073043faecU, 0xd70cf6290df4430aU, 0x22ee201725330948U,
  0x1dfff745f12ff62fU, 0xf713e82d0623c9d4U, 0xfe23ff4404046dfdU, 0xf901112906271605U,
  0x47ecf53d2841203fU, 0xc951fe06363cf5cbU, 0xc6191e10f5146b0aU, 0xd0a2722fcefee3bU,
  0x45f50a2de325eafaU, 0xe93bd4f92618f9baU, 0xc30b294c08112214U, 0x461fdaeff6e056U,
  0x32eb1736f10f1ffdU, 0xc907c606fd0fcbb2U, 0xcc4036140cf244efU, 0x2518f8222fefd910U,
  0x1de8001eef1af12cU, 0xea4cea1cfb46d8d7U, 0xed0ff84c1b2a3fe0U, 0xf40f802f917123cU,
  0x42e51935dff32802U, 0xca34ea391651c4c8U, 0xdafc0d1df3f3f8dbU, 0x1705fc1915f2de11U,
  0x230d0d09f70a243aU, 0xe807d91b1d2ff8f5U, 0xeb17100c08ee14ecU, 0x21c04e334140531U,
  0x21de1d27192700feU, 0xe11ef21e0909ecc4U, 0xde182321e2080be1U, 0xfa04ea13390b0d02U,
  0x26151018e4fb25feU, 0xec2fd80d1137dbc9U, 0xd220170cdbe72c0eU, 0x181e1aea2cfc1326U,
  0x1eec03051c150afbU, 0xcf38fb080616d0eaU, 0xcbfd032af01c3ae6U, 0xb090b161c26e100U,
  0x28ec2806141a1425U, 0xd418f70e1039ddbeU, 0xfa15f42e130931dfU, 0x1ffffafa36040b1aU,
  0x23f1132dfb2b1616U, 0xe70d080ef517c9c9U, 0xcc2e1f1403063d12U, 0xf4fc2bf71104d71aU,
  0x1b0af731f80af7feU, 0xfc3307140e24caefU, 0xe7081e320cee4407U, 0x2060def11fb0923U,
  0x8120f1a001e2517U, 0xf228db13fa30fac2U, 0xd6f529f317ef4bebU, 0x1c052cf61ff7ea14U,
  0x35e4162c1f0d112eU, 0xf21fd700213e14ccU, 0xdf251630e3171ee5U, 0x1d311afbfa1be2fbU,
  0x2efaf710171a11ffU, 0xd847e6230236f3d0U, 0xef141a06e4fc42edU, 0x211e09090e04fe17U,
  0x2e18fd1604010f2cU, 0xda42f3f9231b22ebU, 0xcd2f2028010d17fdU, 0xf3f8fff5fa0be3fdU,
  0x42ed13fbf30bf723U, 0xfb4b0403f50defb4U, 0xf321232de3f92ff4U, 0xec03faf817fbd81dU,
  0x3518f813231fff16U, 0xd51dd701ff32fac2U, 0x5170e1ef6f93a09U, 0xf8fef4ef021ce81dU,
  0x1002111c0906fd1fU, 0x63d07f12028e5dbU, 0xec0d0c19fef83efdU, 0xf50afb011105fb18U,
  0x1d0b050a1afc1bedU, 0x43fd3e9151f18e7U, 0xf604f2e60e1e2b02U, 0xe5fe04f81505da03U,
  0x2f12f512f50dff0bU, 0xea17e9161203f7c7U, 0xf41d2013ec0f2dfbU, 0xf7ea09f11502d923U,
  0x903e701010525U, 0xd72ff2f415080fdeU, 0x419fd18faef17d8U, 0xe60fef0e280805fdU,
  0x3f2fcf0f4162d01U, 0xe327e309011df8f4U, 0xd9ef271114fe1de0U, 0x190eee020df1f0ffU,
  0x1109e7091cfe1f05U, 0xee1a0bef101af4c0U, 0xce0403e6fd1a2fdfU, 0xfef22ae8fb27f115U,
  0x23f710ebeaf62f20U, 0x336ea010418fae9U, 0xe7060af0e40535dfU, 0x1dfaf1effb12e103U,
  0x100610ff07ed0c0eU, 0xdb0ff91a1c11dccaU, 0x6e72aefe31b3b11U, 0x1aeefaf1faf0dc09U,
  0x1df9080a0d160001U, 0xe2450f1c271ef4e8U, 0xea151402f4ee3f11U, 0xb01ffe81c2403efU,
  0x5f1f3ef100eff0cU, 0xee29e3f90204d1c5U, 0xe5011ef60014570eU, 0xf2eafa132215f3e6U,
  0x26fd1d131218eff6U, 0xdf3006f6f70ccddaU, 0xf6ea2c01060b49ecU, 0x1014fd1a0ef6dbfdU,
  0xd0af1e0fdf02b15U, 0x123dbfe233700edU, 0xddfd0dff001040eeU, 0x1f0e1d0b2af90903U,
  0x1ff5200318f3201fU, 0xdd270611181bc7ceU, 0xd51c091af72436f9U, 0x2cfa39280a220406U,
  0x2a260a0bfd19fe28U, 0xe2ff1ff2538f7efU, 0x8ed1dfafb2631f6U, 0x4033a12261b03dfU,
  0x3024f3cd1fe1f210U, 0xfd4ff9340710c5d1U, 0xff1d1def0e70edU, 0xfe0c1efafc08fddfU,
  0x3d20e2f711e6f61eU, 0xda26e23a0107edddU, 0xf3351422fd0a4812U, 0x16f6192315f6fddcU,
  0x2408fef80de20d10U, 0xeb39e9080dfccaadU, 0xe4121e0c00211cf3U, 0x191018fe1b0beddcU,
  0x2d0a0fcd21e92406U, 0xdf1ddff60f16c5adU, 0x2fc1c17fbed25edU, 0xe6e015ed1520fdf3U,
  0x2e15eee0ffe3fcfbU, 0xf11d05fd1100e39cU, 0xd50406fe0ef5410eU, 0x90117fcfe2ae60dU,
  0x60b20ea11081e0dU, 0xff09d6f9f20ee1bdU, 0xee1703f7e4f11200U, 0xedf5fbf2110ee1edU,
  0x2aef19d1ece82013U, 0xdc31de011708f6ccU, 0xed070700dbe428f1U, 0xf603fd17291be7f4U,
  0x1d0bf4e6120828fbU, 0xe636daeb000ce581U, 0xdd0205f004fe41d8U, 0xeeb21160e10e8e4U,
  0x60208f415ff2f09U, 0xe8340620fc34c8beU, 0xfc0bf307ebe41feeU, 0xf1df170afb09faefU,
  0x210af1ddebf01cf1U, 0xf52ee915080cd7f7U, 0xe9e5f2f1e4f033dcU, 0xfa0c0be3f921eb08U,
  0x1e6fafbfcdc15f2U, 0xfb2e0aeae827c8e3U, 0xce140c0cf5fb21f8U, 0xe5d4060c11ffec06U,
  0x2eebfbdff3f70415U, 0xe407ef0f0f2dc6e3U, 0xec010c1115ff3e0bU, 0xf2dd0beb0b2ae3fbU,
  0x2311e2e901f014feU, 0xd104eff3fc00fcf5U, 0xd60528fbf2f343daU, 0xd4f6f7f80c0b0aU,
  0x2efaf0ec0213f40cU, 0xd92af10b022bf5bdU, 0x1ed1af504102203U, 0xee6130d1df1f8e9U,
  0x2ceeffc9e8da06e9U, 0xec3a04081613e7ceU, 0xfb0122fafe0210e7U, 0xf6f0281527160bd7U,
  0x8f5f4b414edfbfbU, 0xd428e2feed2100ceU, 0xe7f31fe412160f00U, 0x5f1270b0626dff5U,
  0x1607e1ec1e0b2310U, 0xd619ec232333d9edU, 0xd8041808160b22eeU, 0xf1ff16ff04dbfbU,
  0x9fdd8ca15ec141cU, 0xe824da221315e3d0U, 0xcfea0b0801101e03U, 0x13df24ef2ef30ff5U,
  0x2b19ebc018f6180eU, 0x209d814fc37bea3U, 0xed0b2808ec022b0aU, 0xf8f5f1ef1c07efdbU,
  0x6f60ffdf2ff0becU, 0xf407de000330b6c7U, 0xfc0de418e1dee3e6U, 0xf6e9f8fa2e2be8faU,
  0x70a362305081bf0U, 0xdb05fce0f508ebdfU, 0xfb1a1027010911eaU, 0x32601e9422c1025U,
  0x21e729edd6202d08U, 0xed21feecf831d71cU, 0xdf0fe5efeaec0dddU, 0xc06e501102505efU,
  0xf4ed2007e9f90a04U, 0xd3fbe3f0101c03eeU, 0xdd1ce8040d0dffcdU, 0x212e803462be828U,
  0xbebfdfed9f91a0fU, 0xcbf8ddec002e0f07U, 0xe021022be0ee08d2U, 0xf5fff9ea1427d914U,
  0xfe0a032ff00c240cU, 0xd6f50414f2150a18U, 0xfde8f006f4f81fdfU, 0xfd1803eb0213f70dU,
  0xfdfbedf5fa160a46U, 0xddf3d5000a391a4bU, 0xe81e1af60dfb35f8U, 0x2be02e23ef0decf6U,
  0x191006f800030c24U, 0x1a16d9fb182502fdU, 0xdd03fe0511fd450fU, 0x13ed14f60ffb0ef2U,
  0x330adbe8240c01f0U, 0xdc38072f1d25f8c3U, 0xd8172af1f2f851e7U, 0xf41425030e1bfff5U,
  0x3415fef105051f00U, 0xf13704f4fd35d5e3U, 0xfe0dfd3a080f0ffbU, 0xdd0cefe312241004U,
  0x2b0805f3e60517ebU, 0xce0efcecebffedaaU, 0xec15091ce00ff900U, 0xfa03120b18230919U,
  0x4e13e030df50c09U, 0xd7fef6f00822e2daU, 0xe209fb0fe8111dddU, 0xde35f7f22012e232U,
  0x21e01a27f1021e30U, 0xd41cdbf3ef1d01f3U, 0xdb15f3f1f0072be6U, 0xfa2c1515280905e9U,
  0x12dc2cf70b1c433bU, 0xf1230c0b191ae43fU, 0xeff72becfc0039f2U, 0x2ce31b0b1b27e4efU,
  0x16eadce31a4d0d2dU, 0xe630e9101133f128U, 0xd41d090a0aef561aU, 0xf9e2120f2521f2caU,
  0x510fecc510e41bfeU, 0xef2be9ff0413bfd4U, 0xd11f16ece3022406U, 0xf60c35012126e302U,
  0x270cfffe1ee019dfU, 0xd50d9041d03eca5U, 0xeff8060eef071debU, 0xed506132b08e009U,
  0x21f70bf705f62807U, 0xe521eff4f805d1b8U, 0xdafd020ce71c3adfU, 0xf604f41b150adbdeU,
  0x9e802e01001fe0dU, 0xd62fdd13fd1effc0U, 0xe909f400f3f52303U, 0xdfc200b20f1fe13U,
  0x11fc110202e522feU, 0x43ce71b220ce9cdU, 0xee0ffc03fff13ae6U, 0x12fd251f0d13ece4U,
  0x131c1be404eb15fdU, 0xe80d061bfa0fe5b0U, 0x509fe03f1eb2bf4U, 0xae321fd18f6e9ebU,
  0x16ee07da2019fd07U, 0xd538ddf60024dcc3U, 0xe0f8050e14f62f13U, 0xf704260cf6220419U,
  0x1bedfef7fbf114e8U, 0xd220dc00ed17f4d2U, 0x9f90f0ade0139feU, 0xef1701e61df8dc07U,
  0x23f60d1df60c1dfaU, 0xec0cf5001516cab2U, 0xeeec2ae311ed30f2U, 0x192f23171605e1f3U,
  0x16202dfc15f72613U, 0xed3ffe122a20fcfbU, 0xf8e82b0d15f625e5U, 0x4ef080c00f3fadcU,
  0x2b0418f3130af117U, 0xdf35e0161b0dd80bU, 0x30c21ef13f951edU, 0x21f7040f1c090b01U,
  0x3e22eadefb0a1b05U, 0xed3df3322405bce6U, 0xce1c1e28092a4bfbU, 0x2bef39f429290cdeU,
  0x390df4d416f2ed0fU, 0xf35509130a1ee1ddU, 0xf6342f0a00154ee7U, 0x2518fcfc2904e7f5U,
  0x1bf21111f7ef2bf1U, 0xf133f7291925c4a1U, 0xdb2b32371d29330eU, 0x1d1507fc130a033aU,
  0x80c47412e181422U, 0xdc2ef11a2a23d99fU, 0xe737123719072efcU, 0x42f1df226051218U,
  0x1405151e17211b1bU, 0xdc190320123308e6U, 0xdd26102708fe25e4U, 0xf7420fff26f1fb0cU,
  0x281f27150c1e0423U, 0xf41ef307032fee05U, 0xce08000ee8261e0dU, 0x110420fb2d1ae51bU,
  0x1c2323ee06370d1cU, 0x535e61e0712e0f2U, 0xeb22fa35110c531dU, 0xfff530f3211ef01aU,
  0x3c052831fe1e0c29U, 0xed19df14003bd2acU, 0xdc36121bf0fe3aefU, 0x1907030f3c13e018U,
  0x2af91927faf00907U, 0xff2810251f2dece5U, 0xf9140f0d10fb31f5U, 0x193efd080af1da3fU,
  0x1f0623340f3b0629U, 0x132d705103416ddU, 0xec022f2109123ee5U, 0x1e152df93324e424U,
  0xd152e2013100c2dU, 0xd029e22f2d3825c8U, 0xdc090f11fe0f46ffU, 0x201e1a031a0beb47U,
  0x17f42e38f823240aU, 0xf223e32a293137cdU, 0xe33928fffcfe3cfbU, 0x24411f22121df13fU,
  0x240c461d090ffd09U, 0x71bed18122030f5U, 0xf3382511f02b3501U, 0xf73905ee0a02f71fU,
  0x2d252b4f040e0a32U, 0xdf43fa0618422bd7U, 0xd53b16270cfa4a12U, 0xf20f2b0c300f024eU,
  0x18ff3e482a140333U, 0xf012dd03fa3340deU, 0xf8fbb61ad1c8a29fU, 0xc079a5b93715ed66U,
  0xa28d5b47a05c6d79U, 0xca84a79ce7507f47U, 0xfa13aa46cfdab7a3U, 0xbd5fa0e0451cec3fU,
  0xb7b14a43c2704963U, 0xd58bb5b7f42e6121U, 0xe7feb33fbed79ed2U, 0xbc4cb7b946f8ea40U,
  0xe9ab2e2db94c4c38U, 0xec98edb40f343b1fU, 0x223d92bead3c4dbU, 0xb728b7ec2515f14eU,
  0xeab02d43c33d4e33U, 0xe3acccde054b4b28U, 0xea0ccc1eebc3dcc8U, 0xd929dadb3e28f628U,
  0xd3cc3727ce203c26U, 0xd2b7f2bbee15330aU, 0x909ef3bfbeacdd9U, 0xc52ac9f6201ffd48U,
  0xeec54439cd1c4b0aU, 0xebdedfeb073a12feU, 0xf613c630e8f8edf1U, 0xd643f3ef3220ec35U,
  0xf4ce3448e82c2008U, 0xe7d3d7d71b2610fbU, 0xd809cc29e803dcdfU, 0xd93ec9dd2f160d21U,
  0x2db2b3ef3373731U, 0xe0d1f2f8f23c250aU, 0xf8f8e139fedfd5f0U, 0x38d7ee2007083aU,
  0xf0e83e11ff37203bU, 0xe5e6fd03ff35261bU, 0xf825e908f50de4efU, 0xef36e60d0d1c0d19U,
  0x10e22639dc343a41U, 0x12f4f7f50b2a300fU, 0xe70f1344ede206efU, 0xe71deb0236fffe32U,
  0xfbec2315fb2c0a36U, 0xe2f8e700171d1f18U, 0xe412e53bdc00f3d5U, 0xe00dd60626121622U,
  0xfec1a23e60c3324U, 0xdf8e40bea083607U, 0xf608fb24f4feedf3U, 0xf62aea0937f2e805U,
  0xfb0a0e19f9131527U, 0xf1e102eef8322a05U, 0xe2fbf207f60bfbf2U, 0xfa2de5e50b16eb13U,
  0x306372c00200f28U, 0xdcd00af11a1c2313U, 0xc5110416010fe405U, 0xda0fddec0f00f601U,
  0xf0fb1b2bdb02341eU, 0xd6e2e7fbea3934f2U, 0xf21ddb02d907f5e1U, 0xcd27d3021d230228U,
  0xe3dc342ced16332bU, 0x3f0e8ecf908350fU, 0xea2edb0dd9e1c0fcU, 0xec14efd935fc0607U,
  0xf0f71e09f1110cfdU, 0xfac7ecefea372f13U, 0xe50ebd2504e9bdf3U, 0xc90ddb01130ff930U,
  0xe1cd2711e40c21fcU, 0xd5dfefd3df233505U, 0xe529dd04fdeed0edU, 0xd312cae42402fe32U,
  0xd0c83931befe14f8U, 0xf7b6d5d4d9322114U, 0xe70edd00facfb6d1U, 0xe217c2f4141ce02aU,
  0xeac73023ca0b1cfaU, 0xe8b0e9bb0b102d03U, 0xf51dbe2fddd2bdcbU, 0xca20daec2f00e91fU,
  0xfbed152ae8fe1f26U, 0xe7e4dae60c341b14U, 0xe908d621ece3dbedU, 0xdc22f2e41d11e002U,
  0xd7de112ff81818f4U, 0xf5c8d7e2043b2209U, 0xde15e32febd1dfe2U, 0xc930d2d72011001eU,
  0xf3f72f2cd8162b0aU, 0xe7ced8cce606ff20U, 0xecf4f40fe3ffdfd7U, 0xf9f8dfe60e120e1aU,
  0x3fe3905e62a1f11U, 0xdae7e0db16112724U, 0xeb03d31f06edd7d1U, 0xd91df0030dfbf70cU,
  0xfcdf0725fa09131aU, 0xf1fbd3e0f60c1332U, 0xec1a031de8e5e5e9U, 0xfdf7f4ec16290817U,
  0xf109070e0805111bU, 0x12ef030c1f080e3cU, 0xf015f209e001fee6U, 0xe2f9f0fc1e05ed1bU,
  0xa00170eeb0c05f0U, 0xf702e102f01a2541U, 0xe00cf20ddff00800U, 0xf5ffd3122f29ef18U,
  0xf5ee11f2e4e70e17U, 0x2f9e1ed0e091321U, 0xfeffeef5e0de0c07U, 0xdfeeddf5120df109U,
  0xb0308f7e8f81307U, 0xeae309f8130d2234U, 0xde0bc719e9d7dbf1U, 0xecf6e9e5191df7fdU,
  0xe6f422f9d50427e4U, 0xe8eaf8d10c1c1e2dU, 0xeaf8c0efe9f5d7e2U, 0xcfeef30216061602U,
  0xefdb250ce3ec201aU, 0xeb8d9edf0102124U, 0xf7f7cf0cf6ddc5f3U, 0xcbf3d7e01d0a02f6U,
  0xe5d02901ebdd0afeU, 0xe7c5e1ef272c0e20U, 0xfddcfe30cefdecfU, 0xefdfede02c2b0619U,
  0xf6ee0d07daec0ee5U, 0x6d7fff3f20afa16U, 0x5efe704dce7fbe3U, 0xe2eae1f92811f528U,
  0xeefc18f2dbe716fcU, 0xeec7f9f0f4170926U, 0xfe1e810ead9d5e4U, 0xf3edc6f12516f014U,
  0xebd821e6dee83605U, 0xe6e100f10d2ef551U, 0xe5fce9e70501eed1U, 0xeaced20c1e061c03U,
  0xfedc1cdecee31dd7U, 0xffc2dfd6f9110749U, 0xedfaececf8dae2f6U, 0xefdcee021b0f19fdU,
  0xe1f017fec6e139fcU, 0xcad6fcff111129U, 0xf6e3d0d3f0f3c5c7U, 0xe3cbd1d544000ff4U,
  0xe6e312f3c3d93501U, 0xfcbddccbf8092323U, 0xafed4e2d2f4b9ecU, 0xcee7d6ce2ff8f8f7U,
  0xe2b310ddd4dd23f8U, 0x4c4dbdeed33262fU, 0xebfcc7fcfed3c0e9U, 0xe7cfd2df2418f722U,
  0xede826fff0ff2019U, 0xe7cb02f21135123cU, 0xf2e4cff8f9e9def4U, 0xe8ebe2df37ffee09U,
  0xdef6fefbc6d81df8U, 0xede406deec29152eU, 0xdbddcad9e4d2c7ccU, 0xc2bcc1db3b28151fU,
  0xeef11ef2e5cb0bfdU, 0xdddd13eef4fc0d37U, 0xf10cdcfed9c7bcbeU, 0xdee2bce21fff10f8U,
  0xe9ddf8f0c7e01afcU, 0xe0c802c7e50f041fU, 0xe304adfaccdcbce2U, 0xccebd3d32a031215U,
  0xf1d61be9d9ec3006U, 0xd8ccf3c4081d0645U, 0x1110e00de9f1b3d8U, 0xc1ddcdf1301efe22U,
  0xe1c50ecfd3ce19ecU, 0xeca7e9dff6230639U, 0xf4f9db08e1c2bee7U, 0xbadacae61f26f922U,
  0xe9be02f0dbbf34f2U, 0xf7b5ead4000b2254U, 0x3efccf5f0e5d1f1U, 0xbbccd0e139072302U,
  0xd8e501d1d1ce1af2U, 0x13b5f2c10711f339U, 0xf3ddc707e8d1bcdcU, 0xd4dfc1db1823f519U,
  0xdfc0f0f0efe70a00U, 0xe9d8e7f10d012432U, 0x2e7eae3d2f7b9d2U, 0xd3ddbae52df6f909U,
  0xdadc18e8ebcb28e9U, 0x3b9e3c90e0c3e4cU, 0x1100c6f9de01c4e4U, 0xe7c3bef52e231dfdU,
  0xeeda18d8eec23208U, 0xf9b9dfec032b0c40U, 0x102d311dff1e7f0U, 0xdfe9bbea1826fe06U,
  0xe3c40e09c3ed19f8U, 0x9d612c80e1d1349U, 0xe503df1dead6c1daU, 0xebf8e2e43f061417U,
  0xe8cc0107e9da0ff4U, 0xeec4f2e9051b1233U, 0xf2ffda0ad5d9b5e4U, 0xdef6dfd6202b0813U,
  0xdee01119cde427fdU, 0xfbcee7e4da0c1443U, 0xfbf5bf11f4c9bae6U, 0xc4ffd7f82011f526U,
  0xe7d10401c4023af3U, 0xeddaddcd080b0e37U, 0xfa15b9f5f3c3a6ddU, 0xb6f0a9d431221627U,
  0xf0dd14f8dc051ce4U, 0xd8bbf6d4e111292cU, 0xd422d621f6e8ace4U, 0xc4f3b4f13a1d0616U,
  0xd2ba2ff5cee73212U, 0xf0cae1b7ec192e2cU, 0xcc17c116d0deb9ceU, 0xbbedd2c12b0afa2eU,
  0xccb90c12cd0d2110U, 0xeeb6e4b2f70c332eU, 0xeb0eb107f4e6a3b4U, 0xbce8d3c92129f40fU,
  0xd1db3026c7ff1307U, 0xe7b3d0d3d311154fU, 0xc06d711d3eab2e0U, 0xc117a3cf1c050f10U,
  0xeee12529c5f123f3U, 0xedc1d8bade141c4bU, 0xff05ac08e2dab9daU, 0xdb18b5e82b00f218U,
  0xd8cc3d1bdffb30f7U, 0x3a1edb7f02b2f13U, 0xeef7ea1fe3e7e0e6U, 0xec07d9e12a211c24U,
  0xe7df1afde3f4190eU, 0xbcddad4082b1d38U, 0x926c61af0f5e0d0U, 0xd1edd9fc2ffd1e19U,
  0xc807fad526291fU, 0xbb1f9d4103b1d4dU, 0x101fd61300f3d4caU, 0xf4fcca03160a0d30U,
  0xf9d20a03d70720fcU, 0xf7c1f3ddf7331734U, 0x5fede2c02d5dceaU, 0xe5f2ebfc180ced34U,
  0xf0d60e2be4140e11U, 0xf5d3f4f203100223U, 0x1411c008dce3ccd8U, 0xc71bc9fe40051905U,
  0xd9f70e04e3f03dfeU, 0xffd9f1eae72c0018U, 0xea1ad815e3f6cce4U, 0xcaf9c1ff390f100dU,
  0xd5e1091be6f43118U, 0x6d4dff4f825161aU, 0x11f2dc12f3d2d8f7U, 0xec06d2003d1c0318U,
  0xd0d82314c0f43110U, 0xdfdcfdeff03528ffU, 0xe7f1c20ee2fbcfd2U, 0xe922e4d22d1f1417U,
  0xdddb0b07dcfc0c03U, 0xe5d0fdf8e41a1c0cU, 0xd717e1edd6fbccc5U, 0xd1f6d2d90f16fa17U,
  0xf0cd3009e5fd1b18U, 0xd5d6d4cadc181c08U, 0x509c90fd6d8cee3U, 0xe501cfe81c101702U,
  0xf3cd2cf3c4f22c0eU, 0xf7c1e7d7f419271cU, 0xe4f4c41500e3d5ddU, 0xc008b4d83dfcf512U,
  0xe0bd33fdde0c0f06U, 0xded7e0d7e636061cU, 0x1fecd0eebd7b0ddU, 0xbc05c0ca1d190c09U,
  0xf1e90602bbfb19e7U, 0xd3afd9bee611fb0dU, 0x3fdcd07faf7dfcbU, 0xdd19bbcd22fd1b23U,
  0xd0df1017bcec22efU, 0xf1d0ddb6053923f0U, 0x41abb03e9fce3e8U, 0xcd05d8ec2007160cU,
  0xcbc20915daf8350cU, 0xe9adffe51f2c0009U, 0xe4f0e104f004def2U, 0xf2f9e80a1e11f50fU,
  0xf6f732fbfc081301U, 0xfee2e9f4242c0bfeU, 0xfbf2f522f9f2ebd9U, 0xd510caf42f081813U,
  0xf8f21514dc10230cU, 0xfdceeae3000715e8U, 0x17f9e50df7dfe8e7U, 0xdc04cdfd101c2a1cU,
  0x10070c0dee032ff9U, 0xf4fd0ee20c3310ffU, 0xf02ac8fcfff8e8faU, 0xdc21e3f92d18fd0eU,
  0x9042a22da201f05U, 0x4ccf7eb09090aeeU, 0xf011e20703eae3f0U, 0xdc12c8011cfa0914U,
  0xf3ee161afdfe0e11U, 0xe6f6eb08041809edU, 0xf1fed7070603defaU, 0xdb0feff32b0d0411U,
  0x1e2220af0f91b01U, 0xfdcd08e9e519f9deU, 0x514de1bfa02e2d3U, 0xd2fcf4e52a1e0734U,
  0x8e80919f91215eeU, 0xd9e8d1f712260cf8U, 0x828d02bf1d6d9f0U, 0xcdeeeaed2c22f61eU,
  0xd6d71d38e0032aefU, 0xedc9d8d4050c230dU, 0x1039ee43e1f4f5bfU, 0xd310cfd653201433U,
  0xe6d7463ce1fc33f4U, 0xcfbcf6e1e82039f8U, 0xa15b82cf1f1d7e9U, 0xe70ac4e32716f031U,
  0xf9ce3831ed13191aU, 0xcdd3f5f0fd40302bU, 0xfc17ba29dec1d4e8U, 0xe61ab3f95210f038U,
  0xeac7552ec2262903U, 0xeadedcd20637383eU, 0xe251c650dee8adbdU, 0xb311b3da35191435U,
  0xfbc65e2cc5062602U, 0xd4b1d4cbf41f623dU, 0xf54bb669d1c7d6c3U, 0xc327bcd56a260446U,
  0xcaa97f52b42f3b1eU, 0xc4a1eeddd6355d22U, 0x332f232c3a312b33U, 0x17041928011f3011U,
  0x2328150936f6bfe2U, 0x4e211c2bf3f70c17U, 0x42520f28350d1333U, 0x207382afb0419edU,
  0x301a1116091ae6fdU, 0x2e1c3d0f24fb0f2aU, 0x4a351a3014040933U, 0xf291a18e11a141fU,
  0x27021c343610f8faU, 0x3d03322bfdff2813U, 0x1643ff351e0a032dU, 0x181a2f09031409faU,
  0xf9192c112c1bea23U, 0x45184100f005584bU, 0x443315ff1323fc23U, 0x12fa2807dc161e05U,
  0x1106021d1314e52fU, 0x4a0a101e1eeb2d39U, 0x41181e0e161de707U, 0x110af92210011304U,
  0x12ff170c0319fd19U, 0x510d0e1e09e3402eU, 0x291bfd0f1e24fa10U, 0xfd150b17f7263011U,
  0x6f618141517f701U, 0x460e3c1512f3283aU, 0x4229fa120714f40cU, 0x26eff429f9f92e14U,
  0x8f1f9100921030dU, 0x21eb2a04fc012327U, 0x22291122211ae530U, 0xf11cf707dd080c09U,
  0xff020171203eeffU, 0x46f32f0c00d6f223U, 0x2a29f70615070bfdU, 0xedfc1128000c1c20U,
  0xe306042c1b0c0a17U, 0x29022b08e8f00622U, 0x2f140e01051df622U, 0x1314fa15fe110403U,
  0xf3f02506e9f61110U, 0x40100a1010f9e512U, 0x18f402ed1209eb05U, 0xfcf20c08e7ef2d1dU,
  0xfd230d1cf604effbU, 0x29f618eb2907021eU, 0x261a1d1613fe020aU, 0x27191324f9182b0dU,
  0xf9f90b1705f5f6fcU, 0x3d091b1d2b0a070dU, 0x291dfc2e0e0cfc1eU, 0x1a2bf0fafff6090eU,
  0xe70c2a27ed16de11U, 0x3eee38fa2ef10c3aU, 0x3d0b0e171502f20fU, 0x27f6ff27e410182cU,
  0xf90f011212fffa24U, 0x26fe30192cdf203eU, 0x4c1915401b151f28U, 0x7170a09e2012628U,
  0xfa030e362411f527U, 0x2ffb2f0407fc0e16U, 0x1f1c1a302d23f21dU, 0x2822162504171500U,
  0xf2220c3b0d20fa2eU, 0x2a002a0b2bdb0c36U, 0x1b3a120f18050e3dU, 0x2a331c0009061b19U,
  0xf7382b572825ea14U, 0x4cf2131412e4fd26U, 0x1126221b0613233cU, 0x25161108000b341cU,
  0xc090d26203eda0cU, 0x4eff1cfe1ee50b3bU, 0x13432b3a1e071120U, 0x1945111805020626U,
  0xf90c33360e46db07U, 0x1e0f2e09200c2f15U, 0x292f0f470a120d09U, 0xf9150d25f206080eU,
  0xed0b3e45023fe232U, 0x2dfa3420e60b311aU, 0x4629f731081ce00fU, 0xc1a0027050d0d31U,
  0x718191dfc25151aU, 0x3e0722040f121c21U, 0x481ff50d0d1af715U, 0xff1b0e25f1fb1e1bU,
  0xf0151411ee27e72eU, 0x24d63508fee10112U, 0x1a3405291425e7fdU, 0x1c23ed0f0af2ff1dU,
  0x102043c1b40170cU, 0x12de20ee18e5014aU, 0x3112ff2c2b0ffd21U, 0x29390f2aeb01073bU,
  0xea0f193b163df40fU, 0x17001e06fdef380fU, 0x1f2f0441f9fd0815U, 0xf0240323fd1bfe10U,
  0xea1937370126ebf4U, 0x3cf434fe07fa0015U, 0x191efb4e22f00b1dU, 0x103701f61609fb2aU,
  0xf11b102d08410102U, 0x6e80814d004211cU, 0x3825f9571cf2eb0bU, 0xd83fe70d01f0022aU,
  0xd7fc3d400a3606eeU, 0x1cfa2bdf03f6382bU, 0x4221dd3df908c019U, 0xf1cec1301eb323cU,
  0xd20f1a6b0b471020U, 0x3af8f4d8fcef2b0bU, 0x2909173f0913dd0bU, 0x1423f11ef203fb12U,
  0xe3f41d59f932ed21U, 0x44e806e73c0a4055U, 0xe0fff281f2b1a0dU, 0x752f624d30c1a3fU,
  0x700305310290227U, 0x441c2c02230f0f36U, 0x2e38fc600a2b0a3cU, 0x2b36070804f0010eU,
  0x1b0a395d3041fc34U, 0x53f72d0703df0b4cU, 0x32230d3f181a0b23U, 0x1e491824f9ee1b36U,
  0xf3043c6d1d450e4bU, 0x55104113270f2345U, 0x203a1f590f092c28U, 0x1f5e352bf2edff3dU,
  0xe07447a024feb36U, 0x4ffa3a2dfdeb0037U, 0x164ef84b362b2628U, 0xd452f0fdcf43206U,
  0x192819440f46d925U, 0x2c1c26250bdd041fU, 0x352c0a32082b1123U, 0x1c660335f6ef152cU,
  0xf3263a680351e952U, 0x291d2f2204112a33U, 0x1a43263e3d202e0fU, 0x39403331e2112a2bU,
  0xe3a3f5c3351d52bU, 0x4b02142b08f21244U, 0x1145314c45370248U, 0x256b2010e5fe2021U,
  0xf32817441946013fU, 0x32252d31fe0f3028U, 0x14622d4334171d12U, 0x216c2923f5f60040U,
  0x141d4a4d384be819U, 0x322e2a18ee042738U, 0x322f07651505263dU, 0x2645fc1afc042c09U,
  0x2715525f052df929U, 0x1c180f2c07010533U, 0x3846f53933fe210bU, 0xfb450d11f6062a3aU,
  0xe52c1872254fea1bU, 0x3f22281a1c032918U, 0x2562257312221809U, 0x2a54071805162c26U,
  0xecfe1b530f3de44fU, 0x3f08390409053a2bU, 0x19491a422d130239U, 0x1a50130014173516U,
  0xf31c367527621341U, 0x360e2f1d23ef2919U, 0x16282f5129161c2aU, 0x3b610a2fe90f042fU,
  0x72f3750006b0b23U, 0x300b1c060cff254eU, 0x14480c5b37001713U, 0x56d1e29d6f81751U,
  0xf6363b7f0f55124cU, 0x2f210c131808215bU, 0x4834284e07181439U, 0x8491cfdec24073fU,
  0xf8196061046cf13eU, 0x49063d04fbff1937U, 0x1403321a380afd35U, 0x3077112ef8f91f2cU,
  0x92e4f44303cf838U, 0x4b03150b26f51e42U, 0x3d1015083147332bU, 0x3c4a2828d7f8184eU,
  0xd4fec444c72dd31U, 0x240a3d43371c1221U, 0x4d0831144c245141U, 0x4e2d2820bbf6051cU,
  0x4549f22f4e30d11fU, 0x482d38390df42feeU, 0x2b402325480d5040U, 0x54333a17ca021f1cU,
  0x1524243d2545ea23U, 0x441f1f4f12dc0619U, 0x382834101a1a5c45U, 0x373a512ae9172308U,
  0x141e342d2845e916U, 0x6a4c304a1ae01bf8U, 0x1a0e371a1a0b4740U, 0x52094a1ad4f6350dU,
  0x2a390d17432ac304U, 0x3035152812fd1d03U, 0x2147345b11093025U, 0x28061c00e0041721U,
  0x243e2247440df3ebU, 0x111f0826e9d90ec7U, 0x384b161801f9f012U, 0x1344fce50a0d1b33U,
  0x91e4b6f0ff50012U, 0xf6fd2f04e7d712f7U, 0x231eef47091a0f2bU, 0x213fee19f1f2ed22U,
  0xf6043963182f0756U, 0xc0018e407142924U, 0x1e0c0048fc0ae103U, 0x225d140e020c1e4dU,
  0xdff7135a0b3cf92bU, 0x43151e0a04ea101fU, 0x4107111f06050b37U, 0x21502f30c7ed1b24U,
  0x1e0f2c3d4fe23fU, 0x3f06202738e7262dU, 0x10fd11144511521eU, 0x1535143ccff82011U,
  0x292005383c3ffa4dU, 0x343816170b002942U, 0xfdff3705461d171cU, 0x28ef1246d2fd0121U,
  0x3449eb253430cb25U, 0x5733453115f509f5U, 0xd41282a0a174b2fU, 0xfacd29f305050129U,
  0x123c31532f04ccd9U, 0x2a271f10f5f9fe97U, 0x82cdc5de908e0e5U, 0xed5007dd1600f533U,
  0x21f43251edccf3deU, 0xf53114ffd5c428deU, 0x1c40fa3ef6f5c1f5U, 0xe437e40feafd1829U,
  0xd2fa5742132efb30U, 0xdc60bd5ef233740U, 0x1c11f72e0df6cf0dU, 0x1e60ee0ae9112553U,
  0xef152b54065a0245U, 0x27e6fd000811174fU, 0x242f1e0d2a2a0d0bU, 0x1d3af0fafe1d003aU,
  0xf2180e3726610548U, 0x26ec260e160a4068U, 0x3216062e1c24020fU, 0x52121ffd4f92806U,
  0xe1efb400328f826U, 0x4e04162a12fa2b44U, 0x3a241c2b16f7f216U, 0x13380b2c0d190114U,
  0x271b14371845ee1cU, 0x3dfa420213f41318U, 0x401c273b22000903U, 0x53e1b07eb181a23U,
  0xe242e421a34f431U, 0x4c0b3dfb1410201fU, 0x3b4b18162a050933U, 0x3280b0905000e18U,
  0xf723334f1a19fb15U, 0x570f1a2423f7075dU, 0x3d39f9192d00251bU, 0x1857f8131009320dU,
  0x2619fb320639d92eU, 0x47140d180c092c1cU, 0x38040d031e141905U, 0x43b2d14e5ea260aU,
  0xef2226122322fc2cU, 0x3f0d1d28f00a284aU, 0x1c261820fb18f120U, 0x1b1af71802fa093eU,
  0x2f50c3b11f8f4e1U, 0x44072516d4d722e7U, 0xc34f8231bfcf913U, 0xe03e0be3f51ffe3aU,
  0x8f92c5304e6f101U, 0x34e91608ffda1308U, 0x25280c5a03dcd403U, 0xd63cfcfdfb252342U,
  0xdddb2c31f3440f23U, 0xdfa17fdfee93320U, 0x3eecea130d15f506U, 0xfd20f1e6dd1fff39U,
  0xe1fb3c4be4211226U, 0x36d001e7e0030d51U, 0x23d7f9e018edf1efU, 0x143f3eddbeef71dU,
  0xe907f0120e3cfefcU, 0x20030913f10d2d53U, 0x4db00de26f30d20U, 0x1b01160ed1181cdeU,
  0xf5eecdd6013cd3faU, 0x18e205f0f2e11b4bU, 0xdd81ae101f80413U, 0xafffef8e21d290dU,
  0x915e2e701e1e1f9U, 0x12ea280b11d1f63cU, 0x13f709270d0711feU, 0x11ed2017f92802fdU,
  0x1604e91c13ced5f8U, 0x2fff180e04e61e18U, 0x1e281805fd04e10aU, 0xcf912f8d72503f2U,
  0xee072a3d10dafc00U, 0x23f10d11d4d5f7feU, 0x22da0cfaebf7e41aU, 0x11240200dcf62706U,
  0xe70c071a1628d8f5U, 0x250af102e3e91423U, 0x3bde0acdfdf8e90dU, 0x1e15e71ddde71001U,
  0xe30bd0db0639ddfeU, 0x2d0f35fc14def641U, 0x37d90ceb03e1fe12U, 0x14ef140ad51319e7U,
  0xfcf3c7f6f5d5ddf3U, 0x33e93500e5ce060eU, 0x34d8e7d120f6ff27U, 0x1cfe0120fbf71dd4U,
  0xeee7f2edec00f7edU, 0x36fc15150cc9d20eU, 0x33d9170e161001f8U, 0xfacfe30fcef805e7U,
  0xf617f3fd0de2eefcU, 0x2ffb1f1911d1e720U, 0x1700dfe525170817U, 0x1405ebeded1635eaU,
  0xeaf6e108f507db0eU, 0x13d926daf3e3ff36U, 0x28e607f8fffdecf1U, 0x13e3121de61b28f5U,
  0xe30dcb03f60ae612U, 0x2ff3fdf507eef318U, 0x3debf6b4100eec1aU, 0x15d816ebdc0b30cdU,
  0xdb0bc9b8faf9f909U, 0x39db000cf5fdf91cU, 0xe90ca334c7c8b2bfU, 0xb478b1d33cedd97cU,
  0xc6a350609a5f6575U, 0xcc9cb7c1e05a5d55U, 0x100fc85bc7c4c7d0U, 0xb946b9e03e15ec58U,
  0xdad45960ce6b495aU, 0xebaaebb4f5317f26U, 0xe638d35ee6d5aec8U, 0xd143ccd14a0a0d4aU,
  0xd0b8583ebf44513aU, 0x2baf2dad9486015U, 0x15c936cdc5d2d4U, 0xc536b8da2b080d5aU,
  0xd2de4d51d5412c34U, 0xe8d3e6cded213b10U, 0xf024c940dbefd6ebU, 0xe839bfd04715fe2eU,
  0xf3d24355dd2d3136U, 0xf9dcf1dd062a2e15U, 0x13fd75ce1f5e6dbU, 0xd023d0d62e1afe3bU,
  0xdedc3233f1332027U, 0xe3ecdeedff303c0eU, 0xa3cf829eaf1d9f7U, 0xfe3bcf00181be64dU,
  0xfbd84949f2353f49U, 0xfed3efd718192108U, 0xec21e53ee802eff2U, 0xfc36fcee1b19ee3bU,
  0xfef2204e062d213dU, 0xebe9ddd8103f4d03U, 0xf53ae122eb09faedU, 0xf940f7072706f625U,
  0xcfd2632f43b2625U, 0xdafa11171640f6U, 0x131f843fd0efef9U, 0x42ee1ea30ff1234U,
  0x18ff2f2d0d2d313eU, 0x17eff805f32a1022U, 0xf119eb4702f305f8U, 0xf23cfaf50d0d0935U,
  0x8f4184705262e44U, 0xbf611180a123534U, 0xed35f329faf910fbU, 0xf23c0b10390afc1aU,
  0xfbec2625f41c301aU, 0xfafffef0fe143f0cU, 0xf80c061efdf4f308U, 0x22bf2e820f5e633U,
  0xe6102a3b0b251239U, 0xfeafef8ed293a04U, 0xfa2c012ce80d09e9U, 0xa3cece832fa0321U,
  0x3f2143afd220631U, 0x2e112ebfc220a09U, 0xe11fda29fd04e7fbU, 0xf321dffb0e03f715U,
  0x2f9291af42c140dU, 0x3defdf2ce262afdU, 0xe516eb39fdeceadeU, 0xec19e1de1dfaf809U,
  0x7ec2334f20e3129U, 0xf5e6e0d3ed211b11U, 0xe62ae109f9eed1ddU, 0xca26d0ef26f8f214U,
  0xd8df091bed1c2306U, 0xe1e7f3ccf02133fcU, 0xf010d12cddedc3ecU, 0xea14cedd33fdf714U,
  0xe7df19fddc020e11U, 0xecccebe9e92c0d01U, 0x916e90b00fed9edU, 0xdb2bddf62907ef02U,
  0xd6de1a06eb282d0bU, 0x6d8f6d7fe0f23ffU, 0x616d523f3f5e0eeU, 0xe10afa051404fd09U,
  0xdce5031ee60a1d29U, 0xf8ee0ef0fb221bfeU, 0xfe03fb19fedfeee8U, 0xf005e10b27120327U,
  0xe2ef0b1bfb240a09U, 0xfdddf2f6fa25fc27U, 0x218fe0beef7e20fU, 0xe60ae2101afee817U,
  0xe7ff161ce524271eU, 0x24fc0ee9081a03f6U, 0x6fcfb2900030207U, 0xee1303ea1df51002U,
  0xe70a1725e9170205U, 0x6ef1cfee6010006U, 0x80bfb09ff030cf1U, 0xf30f000f08f9ec02U,
  0xea0a1d16fd182022U, 0x7040b0f002a1305U, 0x80be61701edf213U, 0xe8260113090e030bU,
  0xfc091a0103150c1dU, 0x15f9fbe6f8211925U, 0x106eb040bff1207U, 0x507e7062915fc10U,
  0xf1ef09f7e90c001cU, 0x2bec11001d230f2fU, 0x16f1080ff50f020eU, 0xed18f4f81f000c22U,
  0xfd10fb0f11fa0908U, 0x270c1dee0a021300U, 0x14f8e713fe0211f5U, 0xf60a01fb18f20615U,
  0xfbf3111505ff1cf8U, 0x21111f11eafc1821U, 0x110a0dfafb100806U, 0xf0ea0c051419f30dU,
  0x9ea0b0ae70822ffU, 0xfafb1df4ebfe221eU, 0xefaf40903e0e4f4U, 0xd5fc0102330dfe07U,
  0x9f919f1dbf7240bU, 0x17fafff0dff5fd0cU, 0x1015f00be1d5c4f5U, 0xd603eae23414f5f9U,
  0xd8ea0aeceaf80feaU, 0xad6fccedb12faf7U, 0x16fbe1f4d7f5b4d5U, 0xdf0dcbe636100f03U,
  0xe0db24facfe81dfcU, 0x6c1e8dae305fb17U, 0x4fbc8fde0f4d1ebU, 0xcde8d5d53002fcfdU,
  0xddea2108d9f317eeU, 0xf9c605e2fc142419U, 0xcfae2e6dbdcd6faU, 0xefd9e5d818f90e19U,
  0xf2f21fecdcfe2e09U, 0x1c7f7ead0121e16U, 0x3e6d8fbf1e1e7d3U, 0xc9f6dedd1d1c091aU,
  0xfaddfae3e5fa2f07U, 0xd2efeae01fef1dU, 0xff08d9e1e4ecdec9U, 0xecddc6ec2013f10cU,
  0xeeec0300c8df1df5U, 0xe2c108d6d41d051eU, 0xefddbbdccfd4c8dfU, 0xe1ced7dd28170111U,
  0xd7e4fbdce8db39e2U, 0x1d201d6e328f90cU, 0x9e0beddccd4b7cbU, 0xb7d4dcde170df30bU,
  0xcdc4fafdd7d41dfcU, 0xeec1ddc8f2081233U, 0x13fbe0e0eac2d2d3U, 0xdacdc1e20b02f715U,
  0xf3e313fabdd415e9U, 0xf9cde1e2e7070833U, 0xfbe7cef8f9ded6f8U, 0xceddc2de1e0eebf5U,
  0xddebf5e3e2eb0b08U, 0x1ae0dfc1f52709fdU, 0x4e5cbf8f7dfe8f1U, 0xe8f4d9f80b0912fdU,
  0xf2fa0ae3c8e933fdU, 0xfbcfedff10a0afcU, 0xebf2f1f8dde6cadaU, 0xd1c7eaec26040802U,
  0xea1ae3d3eb0febU, 0xf1e512d4fa03ff2aU, 0xfb04e7eae3c7bce5U, 0xc3c7c8f037fbe8f9U,
  0xdbe302d8e6ed21f6U, 0xf1c1fcd7e423293aU, 0x1102c1ede6c3c0e5U, 0xc0cfd1fb38030801U,
  0xd0ce13f4bdda34f1U, 0xf8d301c5ed1c1635U, 0xeef9bfe7ececd9ddU, 0xecd5c1f81b18f805U,
  0xd3c5fdebd1d02115U, 0xf5c2ecc0ef0a0d2cU, 0x503c0fffde4b9d6U, 0xd5dce7e515f61800U,
  0xd6e0feedc8f128e8U, 0xbb805d9ec1a0b2eU, 0x800cbdbedead6e2U, 0xe9e8c5f52aff0d18U,
  0xe1d119e9c6cf1ff4U, 0xf1b5e9e2fc110e2cU, 0xeedac3e7e3d8d3deU, 0xdfeadbec2d0608fdU,
  0xcee2f5d1edef0cdcU, 0x9c305cee406002dU, 0xdcde9e8ecf5e2d2U, 0xefd2c7d70e050b11U,
  0xe8e9fdd1d7cd2ce5U, 0xf3cf05dce601210aU, 0xfbe3e3f401f5c4dfU, 0xe2cfe1dd19f2ee09U,
  0xfcdee6cfeee805e0U, 0xeec1ffdde408f32aU, 0xec0fdefde8d8c2f3U, 0xdcf2e9de21120b0bU,
  0xf7dcf4edeac52503U, 0x11ea15e8d4011f30U, 0xfec8e4fcd1d2d9U, 0xc9f7dffc0b07fa05U,
  0xe3e9f3e3e5fc26ddU, 0xfcd5e3c2f205021eU, 0xf7f2d20cebe2d9d4U, 0xcdfbd5cc1819051aU,
  0xe3d71712c9d30cedU, 0xf5e007dcdc0933f1U, 0x1405e4f6daedc7ddU, 0xe7dcc8ed1cf7f4f9U,
  0xebe910edc6e10c02U, 0xe2c0e7ccfc0d180bU, 0xfa06bfefe0eccfd7U, 0xd6fcc9ef2b00e816U,
  0xe9c62309e4e62aeeU, 0xf5daeae1f328ff10U, 0x5eceb00efd7d2ecU, 0xc602e7dd0cee0620U,
  0xe9df060fcef530f9U, 0x3daf3e5ec0b0310U, 0xf6f6cf0fdcdbddf2U, 0xd9f4dff018f6edfdU,
  0xedcd000bcc0c2713U, 0xfad202cfdb000e19U, 0xfa0de306f6d4d5f1U, 0xe9f5cff821f7ed20U,
  0xd7e70c05c8fe27f8U, 0xf3cbe8e8fb29230fU, 0x1a2ac90ff9e6caeeU, 0xef18bde11d05f90cU,
  0xd2d20d15e8ee3201U, 0xdcf0e1e5240806U, 0xf001d7f50edfd9f1U, 0xa09e3f72a081e17U,
  0xf8f51d12f3261c19U, 0x2be10af22e0c263aU, 0x1dff070e10f31205U, 0xf5f60a170c0b03f3U,
  0xf5f9ff00fd18fe1cU, 0x1ed7fc011a31240eU, 0xf9faf2021a10f91cU, 0x1c09f0081012110fU,
  0x512f3edfb000d03U, 0x1d080d030d1f060cU, 0xec27e616f21402f7U, 0xe9dfec13351009f4U,
  0xfbf61208f1df0de9U, 0x13032018ed0dfa13U, 0x905ee0edce9e3eaU, 0xf0f3dcee271800f5U,
  0xfdef2815f9072105U, 0x4d903e6e817e90eU, 0x1520c9ffdae8c8dcU, 0xd3ffc9e930f4f121U,
  0xe4fb0413ed031801U, 0x3e301cbfb000503U, 0xf903d5fbe1fcbcddU, 0xf601e1f62f19e71cU,
  0xd3da201cee0c1400U, 0xe2e006ddf50c02fdU, 0x712f10be4f7e1e0U, 0xea0fcbdf09fefa05U,
  0xe7e0260cd6f50b03U, 0x2e103e403fbfdf3U, 0xf407e6f9e9f7cff8U, 0xde07eadf1ff0ff00U,
  0xf3eb09fce3ee33f8U, 0xfaea08e4e3fe1f07U, 0x30bde16dfdfd301U, 0xec15e8f52100f30dU,
  0xedf21820d3fa1c07U, 0xeeda0bd5f20c1702U, 0x17e81102f9d6fbU, 0xdc19e9e824ff0315U,
  0xd9e51b17eaf40a15U, 0x9e6f0caf41c0ff0U, 0xf31ddcfc08dccffdU, 0xf5ffd0e1090d1229U,
  0xd0d51612d5f11f05U, 0xe8cff0dff71608f8U, 0xea09d504effdf0f8U, 0xdb07d9e81718eb19U,
  0xeff3001cd9031610U, 0xcf05d3fd1b1511U, 0x1318d21407e0eeebU, 0xe107e3061105ee0fU,
  0xdede06fef2162600U, 0xf0f000ee171c0407U, 0xef15d8f5faeafde7U, 0xdefde40631161217U,
  0xd9ea2b18f40b2714U, 0xf2f910e20b090cfdU, 0xf000e50efd12fb0bU, 0xf614ddf42df10c26U,
  0xfaf90410e30e0f1dU, 0xdf400ef01251708U, 0x1718fd11efeef014U, 0x1302e61626f40d2cU,
  0x6ed081308ff05feU, 0xffcfcfdf4230609U, 0xf308ed171bfa0318U, 0xf204ecec12130a12U,
  0xfe0d191beb0f1a04U, 0x11eafa0b001805e9U, 0x1d0bed241817ee18U, 0xf90804f72b11040bU,
  0x101230250a0d221aU, 0x2fdf700181a0de8U, 0x1b040028110104faU, 0x1603030c34fc0113U,
  0x12ed071cfe0b2c03U, 0x21f812111a0a0110U, 0x1a13092e06f709efU, 0xef0be5042a0bfd10U,
  0x19eb1910ed171818U, 0x70c0915f3232cffU, 0x1a1ef7361407e4ffU, 0x911ed0e2bfc0f28U,
  0x50e2b0fee0e2425U, 0xce9e8faff2b26f3U, 0xf21ef21bf4f7d8ffU, 0xfb0fd9ee301d150bU,
  0xe4ef2e22f61a3915U, 0xefe708ea0a0823feU, 0x1914fd40e2dcececU, 0xf725d9e74306001aU,
  0xee011d1ce8231328U, 0xeee8e4f0da182b06U, 0xf439d93affecdbfdU, 0xd00ccdf333fa0b16U,
  0xf21f39e9241733U, 0xf9e4d7ecf5202d29U, 0x637ec31efdfd5d8U, 0xe10fc8ea3c20e42aU,
  0xe83a45e00c272eU, 0xe3d2e5d2ed371f0eU, 0xf51adf48e2e2dfcdU, 0xdd30dfd4350af226U,
  0xebea3340ba1b2811U, 0xdfc3fef7e20e320bU, 0x855bf57dcd4b4e3U, 0xbf12d6ed57040e4dU,
  0xd3be4550bc272c19U, 0xe5deece0e31b5f21U, 0xfc311b15012d1623U, 0x2af32231df260ef1U,
  0x3a26251927ece0f7U, 0x160f1f11ec00f101U, 0xc4e0e171b032006U, 0x30f290cdb17f3fcU,
  0x1b043b350e14f724U, 0x1e112e13fee92c20U, 0x2328fc2bf11f0530U, 0x1005fb18dd0e101bU,
  0x181a2d0e2232f110U, 0x829fbfa09f32e11U, 0xef4a0c3623fe1421U, 0x270c0c1ff5ff1e03U,
  0x5200e3deffce825U, 0x160900f4020f3137U, 0xfa1f08050700fb0fU, 0x240f1726df10fa0fU,
  0x201e3138fd25f12dU, 0x2efef9fbece82b41U, 0x2135f52a07ed0b15U, 0xf52a2512050e1a1aU,
  0x2623f8fef52e0a06U, 0x3412feed17f51b28U, 0xa0c1517f2120b20U, 0x20d13f4dff4100aU,
  0x2221ff28081dfb2bU, 0x13f6170f07eb3036U, 0x2b1def0ffe0d05ffU, 0x130618120b1f24f7U,
  0x2216002bf3feee0fU, 0xfc03030f0bf01d0cU, 0x2a16ff28f118f1f0U, 0xed01f5f808010a23U,
  0xa1e0a0cf1fde60cU, 0xfdf70cf602ed011dU, 0x1934161612f8060fU, 0xbf61bfbf919f220U,
  0xe082013fd19e708U, 0x4fd1b01e7102320U, 0xd03011e1808e0fbU, 0xf2eece9fa16012eU,
  0x1023135f40a0816U, 0xf009f40ceaf7fc3cU, 0x102004f9e716ee13U, 0xf00de7fb0bee2128U,
  0x9ea090503180604U, 0x23f413fe2410ed09U, 0x1f1af40c07f02218U, 0x16011d11100df11bU,
  0x90b2d0c0d220b2fU, 0xf9f228f3f510fb01U, 0x1f240c2818ebf9f8U, 0x102e0f12f4191029U,
  0x1fec14170813e501U, 0xf8020cf5f9050436U, 0x3129fa3918000f03U, 0xf3080a17f922f821U,
  0x7ef1916e900f60bU, 0x3150b1014e11504U, 0x193efe1f051ef82cU, 0xff100d29ea1cfa03U,
  0xd0134400631dd35U, 0x2713221f09062036U, 0xef19142efc1b2529U, 0x2211171403f3fb12U,
  0x28fc0429281f090bU, 0x1a0117ff2a18041eU, 0x20352327ff2b0111U, 0x2d2efc02ecf3f72cU,
  0x1f1e363a2811f52aU, 0xf0e02fd26030d2bU, 0x1929103003270222U, 0x721270ceaf42305U,
  0x101b2936141afa1dU, 0x1a070d17f301f520U, 0x1b3d07191ffbfe19U, 0x2333051fe718f61aU,
  0xd211a37f40b0a13U, 0x111b04020a112136U, 0xff2013230efffa0eU, 0x153cf514f4191327U,
  0x3f80a29ff3c0312U, 0xdfc1f19f5e71e21U, 0xf320fd3ef7060112U, 0x33cf40a08171a1eU,
  0x1e052028ff40ee37U, 0x31021f1f2082a12U, 0xf1431225fd04f922U, 0xe251213e20efe18U,
  0x1cfe2a231342f52eU, 0x315fbfdf9f80b10U, 0xf7290532fef509ffU, 0x123bf1fd11f00021U,
  0xe6e90b2d111d0b38U, 0x14f0f0ff02f91a26U, 0xff2fff43f30cfc01U, 0x1814f405e1fe0b38U,
  0xf5ec2d230b42ff1cU, 0x12e80b1a0b131b1aU, 0x19240d45e6141cfeU, 0xe62815fb14160418U,
  0xeef21051f6161304U, 0x1a091f0c04e91427U, 0x71af72ee0ecfa12U, 0xda1debf700fb0c36U,
